/**
  ******************************************************************************
  * @file    network_data_params.c
  * @author  AST Embedded Analytics Research Platform
  * @date    2026-03-22T17:21:30+0100
  * @brief   AI Tool Automatic Code Generator for Embedded NN computing
  ******************************************************************************
  * Copyright (c) 2026 STMicroelectronics.
  * All rights reserved.
  *
  * This software is licensed under terms that can be found in the LICENSE file
  * in the root directory of this software component.
  * If no LICENSE file comes with this software, it is provided AS-IS.
  ******************************************************************************
  */

#include "network_data_params.h"


/**  Activations Section  ****************************************************/
ai_handle g_network_activations_table[1 + 2] = {
  AI_HANDLE_PTR(AI_MAGIC_MARKER),
  AI_HANDLE_PTR(NULL),
  AI_HANDLE_PTR(AI_MAGIC_MARKER),
};




/**  Weights Section  ********************************************************/
AI_ALIGNED(32)
const ai_u64 s_network_weights_array_u64[39448] = {
  0x97c14f9c81615efcU, 0x67174e47e69bc34U, 0x8a819acbb0c8817aU, 0xe6b3f306039be27bU,
  0xe03a273a7d08ed7fU, 0x724d6de481aaece3U, 0x8d8161ef57d16f7fU, 0x340a2a547433abaeU,
  0x9a81a423016a413fU, 0xee810a5ee7f63a2dU, 0x7fe768650c67e54cU, 0x813d5aa3b145d5ccU,
  0x7f46f76a443350b8U, 0x661c7f19ff7304e8U, 0xcdeccf179d3e9e1eU, 0xdfcd26fe8cfad7fU,
  0x2f547fd950210c44U, 0xd32a6596de7fc04bU, 0x597f906e24dd64cdU, 0xea2710bb1fc17feaU,
  0x6eb45ffa7fdfe5f6U, 0x537f611d6fa60dbcU, 0x36b781a106af435dU, 0x1f04811c0d241f08U,
  0x2d1e265efde918c3U, 0xa0251b9e107f3cb2U, 0x79c61f7f3ee431e3U, 0xbf5581ee4f9cb33bU,
  0x10e03b39f5337fbbU, 0xcf81b7d0b2784345U, 0x1e9a3c591b6043e9U, 0xfef90dc0bd8881e8U,
  0x814bd1de7ff459e4U, 0xda68a029c39662b0U, 0xe83d7f1bfbce4247U, 0x233b897f7b447341U,
  0x10000001bU, 0x1100000129U, 0xfffffe4d00000068U, 0x1d0000005eU,
  0xbffffffd4U, 0xffffffd6ffffffddU, 0x130000000aU, 0xffffffdf00000008U,
  0xffffffffdU, 0x80000000aU, 0x500000048U, 0x17fffffffdU,
  0xfffffe980000006dU, 0x560000000cU, 0x4c00000007U, 0x7fffffd1cU,
  0xc53ff105dd74ffffU, 0xd5ce23beee05ba0bU, 0xe5f8110febebcdc7U, 0xcbd61a130156eef4U,
  0xb2f40bdf3160d9ecU, 0xf16cbfcf1cdf1ecU, 0x15e1fdfdcfe21004U, 0xe6e110e1fec0da2bU,
  0xb33429b5273040f5U, 0xc5f01ed93ae42405U, 0x1319084111e80830U, 0x38d3ff54d4f8cffeU,
  0xf2fa1ce947fef81bU, 0xf5d231d01821ef10U, 0x3e21fb522f1a1428U, 0xd5dad535fd251cefU,
  0xc6200dcb2f58c4bdU, 0x3610271b103c37f7U, 0xe3cddc29e6fc07f0U, 0xfae7e70db0fd1f06U,
  0xe719dfa112cc45f7U, 0xfe2dd8120eedff1cU, 0x3ccf040430f41100U, 0x3fd3272dd1d0f8a1U,
  0xcbcd05cb21e7db3cU, 0x4ddb41ff008d60eU, 0x142ec804d2fc18e3U, 0xecbe316c4e7c2aeU,
  0xe2da0681370a34ecU, 0xd0dfdca204bd2e2U, 0xf4f3ac272ff007f8U, 0xf934cc20c241e430U,
  0x1a1debd93e94370bU, 0x1f00cf250adb0bf7U, 0x2ce1efc4df1143feU, 0xe7dddb38aa19b1e8U,
  0xbe28e5db29ff36b5U, 0xc8d5d4e8fdcc02bcU, 0xfef21642eaf52719U, 0x92e25f4f3e9ce81U,
  0x1bfbf6f113f43bb7U, 0x1c371b0d20c237a4U, 0xf30ce60020182cdcU, 0xcc12eadfc98d0badU,
  0x3e331b0bebc4f2b5U, 0x38f90b3919b428acU, 0xd116f0c5193ffb5bU, 0x2cdbf732dd1a18beU,
  0xd0ebe1820cbdeaf4U, 0xd7efce222abff500U, 0xf9fdd5c7ff2b0af6U, 0xff25ee05dcd5eeaaU,
  0xfc26dc0ff7b71fb4U, 0x34362f2025e204faU, 0x2bf4b2a84928f1f7U, 0x28d0a137cdbecbb3U,
  0x5ad3c5520613e0d5U, 0x3dbe371cd71b1aeeU, 0xd927b40bed2535fdU, 0xeaaafcf6c916ffdcU,
  0x25ce3a16d29ef0aaU, 0x1f0cdbf937ba2ed9U, 0x3a01fdf13e1e04efU, 0xd7082a11f4ce27b7U,
  0x5503f626fb1bdf01U, 0xe0f92b43e6f920e5U, 0xea2fb21232fb3e16U, 0xed0fd8e6d40ed521U,
  0xcf31082c2039b71eU, 0xd4026806e10ec9f0U, 0xdfe9e946f8e53428U, 0xcc1dd60116feb21aU,
  0xbb714d0091d2716U, 0xff16fcfe27d92c2dU, 0xe05b6e903f43215U, 0x1d14f4f6ece9e4c0U,
  0xef07d796f8e7fcaeU, 0xfc3601202dc4cecfU, 0x1712bdfeeae930ecU, 0xdaf706e302f3f2e8U,
  0x1f6061ae7e31181U, 0x20eb2b0beff62f05U, 0xf4262d2802f7f8feU, 0xda171818ea2de83aU,
  0xe0fdd6f22bdd2019U, 0xcbd3c317e506f10aU, 0xe933f2d60423f503U, 0x16fc0ed52bf50dc8U,
  0x11c21bf6e3bb2114U, 0x15ef1e0c191d28dfU, 0x231ce0f419ed40cdU, 0x7cbf0dd15e0c616U,
  0xc3fa8c8e9e0dd93U, 0xcbdc36040ba726d3U, 0xe51e38dd1dd9f511U, 0xf3e51a2cbaded3c6U,
  0x34ebf13fdc031519U, 0xeaf10dd9e3c9dcddU, 0x19e327e30e3712ecU, 0xf7faeee225d217e6U,
  0x32d40e0defe4370aU, 0xb7d7de0c15da13ebU, 0x1ddbcac0e6e82d13U, 0x1fc3e73b74fbf8bcU,
  0x3dc1db44f33c1f36U, 0x13ff1d35ebc015f5U, 0xdf0407c908fcee02U, 0x6c62cdb55f7e90aU,
  0x9d378fffe1f7d5d1U, 0x88c4cb9ce3a2f4e5U, 0xcff23deec8e5e5edU, 0xb8b3df1d150fa3e9U,
  0xe11c20e5fddaf7dcU, 0x18e8bfc0b694138fU, 0x4505f22a25e50001U, 0x27f1efde9d18d91aU,
  0x1057c38c16093ebcU, 0x3047ec0232011df6U, 0x403cf43b37c5da47U, 0xd2e916ddedd7d6e7U,
  0x2127c7de3cbbdb1bU, 0xa3bf7233fe748d5U, 0x2e223215c8f616e4U, 0xe4b2d9e3d5b1e9e7U,
  0xde012e9728eeefadU, 0xe008d53e1dbde3a2U, 0xe9b7efe50309b9dcU, 0xd81faf3afea208bfU,
  0xf0eefdb32181048dU, 0xd92c1d4420d629e2U, 0x3e05efdeef2ad838U, 0x1cf4cf1ec4b5de0dU,
  0x460c250a37f8f9c5U, 0x151cd62515b84fd4U, 0xe6d25014d9e4eceaU, 0x9e5f61ebd591ef4U,
  0x2b18e4cfe5b531a8U, 0x272b0d13e3004bc1U, 0xf6f80fda422349caU, 0xe4c8c4ea351a25d3U,
  0x4822fb10cfeeffd0U, 0x2e28bd23ee0225d0U, 0xd8e426b9112c3918U, 0xcf049ff31602febcU,
  0xf8000d8f0126304bU, 0x284510ecdad0cc48U, 0x3e092dbbbfed2f1eU, 0xfb0bc010b4fc0ba1U,
  0xfdf118fcf7ea12feU, 0xa230ef32b151281U, 0xdc04fecf42f5f8f8U, 0xeecbabaff7d4cd30U,
  0xecebd3f628b430a6U, 0x9e9cc331e20073cU, 0xcc25e4fbfdd01c1eU, 0x18cfbf1544dab0f1U,
  0xd9e90d8a47072d0fU, 0xe014053cfbeb29d5U, 0x9e4399ed959bd2dU, 0x35b8be14ca0fe3a4U,
  0x3cff04e824cec81aU, 0x3f8d5d9fad9350aU, 0x4c092ce9d11dfa0bU, 0xdd23f2c9ecfbfee2U,
  0xd5de0e1df4d33622U, 0xd3090541302be037U, 0x1e92acadd4b04e5U, 0x2be6b74734d0e537U,
  0x12e8b6bd2df54f29U, 0xd2e33e4fa132a0dU, 0xef0f45d016371f3dU, 0xf0f9155fc127b0a6U,
  0x17f3b6f23ef93b42U, 0xfaf71b23f817dac0U, 0x10c78cbaebd85310U, 0xeed0dce720d700fdU,
  0x151c030eff043538U, 0xed21410011133a40U, 0xe00322cebb1221fdU, 0x20a8dadfe20caf0dU,
  0x1f0eef3fe0b4dde9U, 0x303725360d141426U, 0xfdd5e943ef28f9e0U, 0xf8e6da262e0ff09cU,
  0x1fce0607ebefd1cfU, 0x163d0c1bfadf1e09U, 0x1cc8de1c1dfccb25U, 0x1ac8affbd2de0795U,
  0xcd1ccda4b028d59bU, 0xf8dd4b28ff2115b2U, 0x1c23ce52e601d212U, 0xe8a5fa1b94f0ec39U,
  0x5b1be91d27bef825U, 0xd41ae904e00918f5U, 0x3ee1f00e4443c01U, 0x1dc5e5f312f3d4b8U,
  0x3bfcec11d4b50516U, 0x936ea0fefc1e804U, 0xc80d00d643f814e8U, 0x14bca6e5fce0e781U,
  0x1ed8bae00bd5efccU, 0x191827fb1ace3bd1U, 0xffc2cc2f05001cU, 0x1bf5050ac8e3f3fdU,
  0x30f2c55ae11ae500U, 0xd7e4f10cd90ede0bU, 0xd5dd1647c800f8f8U, 0x21f11d253919efdaU,
  0xf9e0fe1e0229dbfcU, 0xb9fd282f17e4e226U, 0xbe5c41af327edc9U, 0x1bb0d72d0b0ae4f7U,
  0x12cc10d16fd261bU, 0x1be8fe1fede72ae7U, 0x33fcfed1e609390cU, 0xa0ce310e6f0e5d8U,
  0xe60e1757a4cc37ddU, 0xeabeaeeddb21c647U, 0xc73e22bde23ddc97U, 0x39b6b2a6e59f05adU,
  0xe60cba9e00aafb26U, 0x99274dc73e3d3babU, 0x2d3ebc1726e71810U, 0xe41f232117fbf1bdU,
  0x5dbe589dfbd1da0U, 0x97daba9d0cdca59eU, 0xcc5d3ebe1d52219U, 0x173814eeb903b981U,
  0x1e0c14d12abcc117U, 0x119ecd134d005e2U, 0xadf30d9dfd9a980bU, 0xa9d499e93c00ce0eU,
  0x10400befa8371ea2U, 0x1e0e0f3000b21db0U, 0xf40e2820b806c634U, 0xf903cabaacfdb926U,
  0x1846bed7d00dc116U, 0xe7ac20120a19f5c7U, 0xb0c8dfb3e1f8c4e6U, 0xd5c0310ce2d91daaU,
  0xdc2b3c143649cdfbU, 0xcce9ded709d6df12U, 0xb69cba10e6ff48b4U, 0x9dc10f19b9e1cf26U,
  0xa4a6f9e3bfd11dd4U, 0x15d0b2adcda31f45U, 0xb60bb1a9f4aa20bfU, 0xaeb7b43bfdd2283eU,
  0xce0ca037f0fa0b0aU, 0x1213cfd427e12bacU, 0x5af35d6b2c639ffU, 0x14dfdbde39eebd0aU,
  0xf7ee100be8e319f4U, 0xf01ef52c29f701faU, 0xe6ffdde61d0ff817U, 0xfacee0dcd8c719ebU,
  0x9f6fb13dfed35b4U, 0xfb31f10313010902U, 0xd5f00cedfb0e0826U, 0x10a0525e60f11feU,
  0x1b01de11c52cddb7U, 0x23b0fe0edc0d21c5U, 0xa60debf6e8f10bd9U, 0xb8d013a5fc17f35fU,
  0xd03e600f6e010f6U, 0x1623dcf81c0aeaeaU, 0xf623f00d14e10dfeU, 0x16cef816ced3f407U,
  0xeed00e8e20c28e2U, 0xff28fc0cf10b0309U, 0xbaf4eeddf3e606fdU, 0xf6131aecf2f514f5U,
  0xdcd5bcf0d91abd81U, 0xd8aef704ef0ce8a3U, 0xaecfd605d2b102bdU, 0xd6fc0ac3c930034aU,
  0xddd9040befd505d3U, 0xe1dfa1221daf5f6U, 0xbc20f4f31309e3ffU, 0xf1f3fb1f19db18f6U,
  0xfcc3f10dec1a0cbcU, 0xde14df1305e006cfU, 0xc8f4e4f61409f426U, 0xe3f7f3f6101dce09U,
  0x515ca1aed31afe1U, 0xd1e0feeab6faedd7U, 0xedaafff7d6c7cfd8U, 0xcc0a19fccc15d320U,
  0x3ff61b4623f1f92dU, 0xc505ec0c051ae400U, 0x7f2dce52327f6efU, 0x8f309fa39f2ead7U,
  0x2af4dd0c03eeef0dU, 0x1d0a11df00151f14U, 0xf08e9ff240bf913U, 0x9e8b919fdd1010cU,
  0x1e0dfff62ff22e05U, 0x1710e6f02df41025U, 0x263a2c023115e213U, 0x36d5f036fdccdb0bU,
  0x4dcef4403e6cc2cU, 0xbdfce8e3b9e1cc12U, 0xf3ceb4eff01df1c1U, 0x4c819f33afde01fU,
  0xadee820f1e00c2dU, 0xe2e6cb16eb05f827U, 0x1201ecd423ec31d3U, 0xe6c4e1f438ead4fcU,
  0x2df10805f8ca2433U, 0xfe31fe25efc30122U, 0xfdfbfee51cfd2710U, 0x24d60af54dcacfceU,
  0xc80e1ef0ea24ffeeU, 0x2ce25409071f16bcU, 0x22ab213be9dbfe45U, 0xbaedfd20c419f941U,
  0xd2dea910b8f80212U, 0xf9d816dfddc8ecf2U, 0xced7fe09bce1ffeaU, 0xf0dfe3fb1ad6d21fU,
  0xbfcc925d80ef622U, 0xbdc7d8e9c281ed12U, 0xf2c6bef3091f29d0U, 0xf6ed11e832b0cae8U,
  0x200f114eeeddde9U, 0xfea808efc72520c9U, 0xfae98814122f1eccU, 0xf80e1bc827080826U,
  0xec17fa1d10e0120eU, 0xe7d3eafbcb09cadeU, 0xe3ece01cd1fa10b3U, 0xe205fe0423fa11efU,
  0xfcfff41acc1fac0dU, 0xea8ee7d6c2ceee0dU, 0xf7e9e0f6e5fa0cbdU, 0xcd1bebf1f525d9f9U,
  0x1b2bf4fdef29a007U, 0xfcad1104dcfedbadU, 0xe5abce20122c42f3U, 0x81f310b20a08ccf0U,
  0xfe0db814eeead0e8U, 0xa9c9a4b79bd8faf0U, 0xdcd1dbc7cee0f2bdU, 0xecd5fca3ee07f4d6U,
  0xe7fcf5dfe222c2c6U, 0xc79ec3c59ad588bbU, 0xbf8fc5f09c0ee2d4U, 0xb6f924a723f1e617U,
  0x4e56f4ab3df0e9f6U, 0xed106206e2581e19U, 0x1f3d3b64fa543c22U, 0x31da9434cb35ecc8U,
  0xbc471ae9bf43e005U, 0x49ca5e2dfa0912cbU, 0x27efc0381454e547U, 0xe1fe06e3c3d5d61bU,
  0xb01bd2f21406e321U, 0xb9d4fed8d6f3d9d1U, 0x25fa14f8e4cc1a0aU, 0xe4d8f40ed7fce2dfU,
  0xc737d1cded4aef0eU, 0x22ec17fad0cbe9e8U, 0x40cfff3dfed6d102U, 0xcfc8e101badcb500U,
  0xb8f5e7fdc526b506U, 0x1bc62fe6c6f8fee3U, 0xe8b4fa15eac0eee3U, 0xb8d6f2ecf9d8c733U,
  0xe3e7b307bdfbb2d9U, 0xb1c5dcb0c4c0a0afU, 0xa68596da8cd408b1U, 0xa2f1fec4ffb7d5e4U,
  0xe0011fadd7ceef0aU, 0x2c0f3ffe0a393122U, 0xe94fe602f82bfb2cU, 0x23e9c008c4c32322U,
  0x81f7f6d2fc1600d1U, 0xd91c4ee9f942cc37U, 0xf813f8f9eafe0fdfU, 0x15e3effbdad4e70bU,
  0x8af1b2e0c14bbbb5U, 0xe7bf3eecd0f815faU, 0xd1d9ee2abfbcc8fdU, 0xd9d7f7c3f3c3b232U,
  0x15cfe93611b0e01dU, 0x160440031024e043U, 0x541ddc4df1d18ddU, 0xed16c824211518f2U,
  0x502d4d8fa0a0a13U, 0xdf0314dde829ff37U, 0xfd31e8ff1a1af927U, 0xcdf3101003e8d7U,
  0xeb04fc00fefcde05U, 0x101d37da115bf741U, 0xef13eb1b20e82614U, 0x7ffee15f619171dU,
  0x623bcbbcaea040aU, 0xf4e3d9dfdccf0431U, 0x32e1fd20f5fef7f1U, 0xf9a510b80cd6ff38U,
  0xb32313bc08dc18dcU, 0xdce50c36381f14f3U, 0xf21205d22fcd3accU, 0xd9e733381718db38U,
  0xf9261fe118d0ff36U, 0x10fff1332fc964f3U, 0x4dee2b24f72a5232U, 0x5e16fafcf6dd1127U,
  0xbbfc15bde74d07d6U, 0xe1dfe313eb1c11b6U, 0x32e2b71105c6233cU, 0xdab01aa9dcbdf42dU,
  0xfbecece064f13a0fU, 0xcd34c5fdd78741b2U, 0x2cee06ea2cfc4a49U, 0x45fe2616a51202a0U,
  0x48e72f2048d201dcU, 0xf0281255f5c92d1fU, 0x2c3dc4e44c621949U, 0xee05c125df26b1d7U,
  0xcc11ef95230d25e6U, 0x2f300d1217cbe5adU, 0x30ebb613c0fac11eU, 0xc2e3c83b9425e7bcU,
  0xd43adce8fed061f9U, 0x2236d149cfdf10a2U, 0x3ae5cd81e3e61450U, 0x4797e2e2eedfa619U,
  0x10e311255ee53e40U, 0x11028f03efdefd2U, 0x131ffaf3472705c7U, 0x30f90fe31f4bca9eU,
  0x120fe32b030ff223U, 0xfafa0514cdf4f613U, 0x19e981da1d20fed3U, 0x16b90ac24fb9ebdbU,
  0x41d0e431f10be306U, 0xd4ffe3f102e2f718U, 0xd735fcdd0e1515e8U, 0x15caf1f62306fdd8U,
  0x18010b2a0cfd281cU, 0xf4f5e917f9e1f9e7U, 0x1af81b0f1eebf31dU, 0x4f9e7182002fc13U,
  0x1237ebf7f81b00ccU, 0x242931f2e32ddb04U, 0x114fd44ec11fc20U, 0xf83aed3dd337fc02U,
  0x221dafa14f40011U, 0x317f8ecc9f2fce5U, 0x10eb010f080f0cfdU, 0xddeae504f60ef2f4U,
  0xec2fefe2f5fc0b0bU, 0xeaec13fbcec3fb11U, 0x1fec0dfd10e5ef0bU, 0x15f703f0f407e5eeU,
  0xf811e814f6f2e728U, 0x21e31e01541f147U, 0x1631fc27ed4b35e1U, 0x28e4c9041fe903c3U,
  0x1808efd81fc10de4U, 0xf72005e308da04deU, 0xeb22dc0ff10d000aU, 0xf2e9fafcd5e9d7eeU,
  0x2df1e5e5fce70bd3U, 0xe01b0a0de4bc1cc6U, 0xe5fafefa1d121a19U, 0x17c7dc0009feb8faU,
  0x44ec154704dcc9e1U, 0xf1d23928f3e513caU, 0x392f092a26000916U, 0xc11f5f2082001e4U,
  0xf10ae2fd25faf24bU, 0xf13248cdda390618U, 0x15230009e33de51cU, 0x2707ce07e2dd14d7U,
  0x1a3411a733ade60aU, 0xd6215f07df363032U, 0x2a11086721ee300fU, 0x30fdb22ce6111116U,
  0xc13d623c02299e0U, 0xdebbc6d1df13e6c4U, 0xd4e90acef00d2e85U, 0xa5eeebe0117216fbU,
  0x30f2ae28f308f060U, 0x97f5ccd0fec0daf7U, 0x16deabf0f70c1beeU, 0xf9fbff331db5ddddU,
  0x3df8f25747a93358U, 0xc010fe2bff250348U, 0xee40319a40505025U, 0x45d7b5437f03eccbU,
  0xff41dad3d82107cfU, 0x51b00d300eef38fU, 0x34ce4c15d3dc060dU, 0xfedd1729c94dc112U,
  0xd201e2f709f70105U, 0xc80725ebf7ebc98bU, 0x1fdff105c5f0e726U, 0xd1b7f0f802079425U,
  0x4514fd26f9e20e63U, 0xbae3e32ee0a71a10U, 0xcdfcc8fcda21f2f1U, 0xd9d1160062e7cd03U,
  0xb31c9c1de32efcf3U, 0xb6bedd95818dc0d1U, 0x209dc1e9cdb4c69eU, 0xd7bc22eac6c38904U,
  0xb109d6d1f30714f0U, 0xb407fff3e714ffddU, 0x2c0e160a320c3cf4U, 0x2ecd0745ed07e02aU,
  0xc01a2bcd4af827f2U, 0x2121422c21d1272aU, 0x3a3123670105f218U, 0xb0ee941ed02c407U,
  0xc127d1dcfd1e060cU, 0xb6d7adf385cdc4baU, 0xfd84d0d3b508dcdaU, 0xf2bd081afae283f9U,
  0xdc2f0fbdf5cc51ebU, 0xef38e92030ea3ce9U, 0xf6d94f300609252dU, 0x3ce7d41bd613d6bbU,
  0xe034fdd64ed350e2U, 0x85429170af01eb4U, 0x35e60d1b453b0225U, 0x23eedd339df8bb18U,
  0xf224efe3330d12e7U, 0xdb3aeee6cad31fecU, 0x4b6024ed7d830eeU, 0xf2e6e93b0217f2f8U,
  0x1b2acbc63dad47a5U, 0x3c161d3deac340cfU, 0xe7cff4e2eb2e2c45U, 0x3da9b812d00bbadaU,
  0x3f16c02032dc082eU, 0xed2aef111df31ec1U, 0x313603fc093c0af7U, 0x39bb971db927f0feU,
  0x84ee6e912d60dd1U, 0xd91bf6fdebdf22c1U, 0x2ae2fc240bf13c0eU, 0x2ecd72ed1f8c700U,
  0xe82207d0cdfbddc6U, 0xd62614ddfad3fbe2U, 0xf3dc1150f00adf05U, 0x26e1fa08fb21dbd1U,
  0xa40600cd9e01e59cU, 0xd3f011df04dcfaa4U, 0xeee5e13eea96a4deU, 0xb6d908d1d10d133aU,
  0xf504d83ffe080a07U, 0xe30437222d0b1116U, 0x3343008304609e0U, 0x34fab6232fec13e5U,
  0xb09213c0ade22e6U, 0x101cc9d900cbfff8U, 0x220cd0f81c20f5ffU, 0x25dabdecfad2f5e3U,
  0x25eb01c2c31bbaf1U, 0xd03f20ad9f622e3U, 0xc3eaaf05f4d4b702U, 0x12c90fddc881f704U,
  0x4e0d01771c1de0feU, 0x1da18f8fc1ae137U, 0xd8ed030617420602U, 0xdef8ece73703e5ebU,
  0xf5b51529e927e522U, 0xc535eced1abd054dU, 0xba00cefa16081cefU, 0x9ef0ae628da12cfU,
  0xff8f22ba5e4e403U, 0x4bee9f918fa22adU, 0xbaeae3ed30d80c10U, 0xf3cdeebd10c2f300U,
  0xc8f7dfb5b1cdf6e6U, 0x142e0e072a351927U, 0xf826e3f322cfb9fbU, 0x241de038b5b20504U,
  0xd90bbafc1c02cd14U, 0xcaf7e800fd02e041U, 0x22f1d3f4c915bad5U, 0xbefe2f1be4e5e115U,
  0xdc26ceeeaf2fb7d5U, 0xf7c741060b23f1d5U, 0xc3d9f860cbfceb02U, 0xbef11d1fffe5fc46U,
  0xd08efcc20ad3291dU, 0xae0eaf7193ef834U, 0xf236bebe0624c8f9U, 0x51e16fa01e9210eU,
  0x8dbcd3e022321U, 0xcf231714efd92005U, 0x2302b2e6f5e2ffffU, 0x23d0f429e5b6b4cbU,
  0xf41118d1fd1521f2U, 0x10e55d05171fd41eU, 0x32ce141eef71d08U, 0xef23f9edfdc9020fU,
  0x3a1d0dd2c070833U, 0xf5f811e2030cf406U, 0xe53cba81f2fbfce8U, 0xee1a07260ef9f7cdU,
  0xcfee1af0e4d2e539U, 0x7151aef152a1df7U, 0x1dcad1093001f007U, 0xff10e70ce7e5f923U,
  0xd734d9e338073532U, 0xef3f3d112a4a2449U, 0x549d830f6320bedU, 0x12e2e409241d0cfbU,
  0xb744ccf09553c604U, 0xebab0402e9c4f6c3U, 0xc3e4d61bc6d8bb1aU, 0xdaebf2f7fb94e119U,
  0x83fdab14fde0c60cU, 0x9fdecf90aedc9de4U, 0x1db2f2e6e2a2df8eU, 0xe2b41dd5fb02d009U,
  0xb75208bc3317fde7U, 0xd94818e2f5fa1dd6U, 0x2a125a2feedafd1cU, 0x35f8d811ac21f6d8U,
  0xf805e8ccbf2dcab4U, 0x211145d9fd441c37U, 0xe829c6070beff4efU, 0x10d31108bad3fdf6U,
  0xd629bc1037f9d504U, 0xb704bac5caabc319U, 0x39abebd900d7f2a8U, 0x7c30df2f1eed4c8U,
  0x72f0bde3ddd4ec9U, 0xfe55e83930d64ee9U, 0x18175aee48001f3aU, 0x3d070259f612ce1bU,
  0xff4d7c60357f1f2U, 0x211926eefc48ee4fU, 0xc822d824e1ec0c24U, 0xfc01dd0f22fa210fU,
  0xcf0fc2ea2a21eb27U, 0xdc229d09c88108e3U, 0x4b2e9f8ecf320ecU, 0xfad0e0d41efbb013U,
  0x2bf11b091fd04cecU, 0x4f270534f50854eaU, 0xdff653d92f0f2c2fU, 0x39e2ef34fa2c1719U,
  0x33d2b93f02f5ba25U, 0xc0b0a5f7b7b4abacU, 0xd5d19acaea0b128aU, 0xc2b5f3bd2702c8d2U,
  0x2515e6fce213ef13U, 0xc7e6e9f6def3eabcU, 0x17151701f80f16e6U, 0x4cc0aeef916e817U,
  0xf90cd816e621ea04U, 0x1dc260dcce9e8eeU, 0xa2229f9f422f71fU, 0x1ec81e260e23e7f6U,
  0x951b10f1fd624c0U, 0x89f0e2b3bad3a5a5U, 0x5eb4a1ef1f7f5d6U, 0x7e5dc3bea53c681U,
  0x21560ecefa0127c6U, 0xeffd061afec917a8U, 0x2e08462019fce141U, 0x8fac00ae341fc0bU,
  0xec4bbdbd1dfd0ef7U, 0xeb0c041216de22f9U, 0x2447392b2f251422U, 0xde0e63ed350bbdbU,
  0x192b163311c605ceU, 0xda1acc1805e4fff1U, 0x29f22b4a2dfddb29U, 0x1befeeff17e3d4b9U,
  0xf80df334c2ba26e7U, 0x1c03eb1ae7db28d8U, 0xda1415d505ee1a06U, 0x20dbd404e1b617ffU,
  0x35fcd83113bb1645U, 0x1a1905241ad42fedU, 0xde37f8ed131e0800U, 0xf6fa091530cfc9ddU,
  0xf14047f37cc2c18U, 0xc2eee9db161c0f35U, 0xe35de002424e9c4U, 0x516ecd416b520a6U,
  0x4bda064b2ede1701U, 0x24201bff0bbc15f9U, 0xf4fdd2ce2e3d37dbU, 0x19f0eb00fbd3d8d2U,
  0x44b2f6320dacfddeU, 0xff2512f60ce72e2aU, 0xff660ee11644072cU, 0x52b505fe56b9dae2U,
  0xdb22a73ff8e8d434U, 0xddfdd8c8b902b40dU, 0xdebf172ce4e6f8ecU, 0xc0fd1cfd3b42e90aU,
  0x4e807361b14dc08U, 0xa6fad009f6bce5e6U, 0xeef0d7dde3d842b0U, 0xf8cd0a33eb2312e4U,
  0x3e16ef1c2220f1f9U, 0xd522d21feaf514eaU, 0xe5f71bfe050bebedU, 0x7aff1d61cdfd8bfU,
  0xd337ecf5f8d0b6aeU, 0xd5bf5028b614f9adU, 0x2124e6f1703c7eeU, 0xcbdb1403aa3bed23U,
  0x1336bdc1bb18050dU, 0xe40047ebdecd0cf7U, 0xe501091afaeecaefU, 0xe2001e19040ada1bU,
  0xe1eddefed8f2e0eaU, 0xed09fe33e1eb280dU, 0xd736f518ec04e226U, 0x22c4d0d20009f6e4U,
  0xe207f093d91ef8f4U, 0xf103cd2afcd51dfeU, 0x2c091fff42f0edfaU, 0x10d9bb14e5fa2cd3U,
  0xc9f727033211d3dfU, 0x3df1fe2d370b02d2U, 0xdac7f2e908fb2405U, 0xd11b12c1bcc3f6daU,
  0x323208252ebd07feU, 0x3025c91bf5ecfafbU, 0xf931fecf27383cf6U, 0x15d3085af110bcc5U,
  0xf2f7d8a322f4f9f1U, 0xddf502190dd70bd1U, 0xde0d806e8f80100U, 0x35eeb014b0c81cbbU,
  0xdbf5e699f10022aeU, 0xd23031d1d21f9cbU, 0x1ac5e4141f1ee71aU, 0xe9eaefcedccc0417U,
  0x380cccfb18b01fc4U, 0x2e251315f2c827e1U, 0xc21608aeedea06f4U, 0x14ee1c3a0d11fa0bU,
  0xe4ea1081fbb510f3U, 0xf6ab05fec7dbceU, 0x33fe2fd7150b162dU, 0x23bef03ca81af7c7U,
  0xeb09fecdc8e2e8a8U, 0xb0fdb09feca2bd3U, 0xe7d2b6e311e9f72cU, 0xdb25f1d4dbe1cb0eU,
  0x2ae20d2a12b52ab4U, 0x4cd0d31dcf1fbe3U, 0xc15d4d5fe1def11U, 0x9bb0108ee57c216U,
  0x4d9e02221e708f6U, 0xf114e307dfbfebbbU, 0xbecac00f722f2d3U, 0xe2c1fcdc2c2fcfeaU,
  0x2b3705312d0c06f0U, 0x3e41311dc0505d9U, 0x190f4a320a1fdff8U, 0x17effc26fe02dbcdU,
  0xf238fbfc1a0520feU, 0x1d2cede9d7f03712U, 0x1af9040308f211ffU, 0x9b7e30be5d3ca06U,
  0xe5579be73cbe2ec3U, 0xdf0103cedbe7f2dbU, 0xebde2a2fbee4180eU, 0xf0df0b2a023bae81U,
  0x2f52d3b61b0e25cfU, 0xf21cec3bccb31ecaU, 0x2adef33a24fcfa1cU, 0x1faed8f8f40bbc04U,
  0xf430aabe23dde8dfU, 0x1317f8fadac41ae3U, 0xdf0063f0cf0252eU, 0x1bc0f937c133c7bdU,
  0x251a081bf3f329ceU, 0xdf330adfd5fd3404U, 0x1f2a2e3c040c0b27U, 0x13e5b14043f6e58eU,
  0xe80a022804df05b3U, 0x1214e62f0dd423c8U, 0xa0f01fae4fc38eaU, 0xd0f6b0d0dddfbde7U,
  0x18e6c9360edd05e3U, 0xf33ef0103f326c6U, 0xf93c09f7332c0506U, 0x24f2f7f7230ae1d3U,
  0x3ead1c52f1eea3fcU, 0xebd7ae22b2baf8adU, 0xeac6b394ec2a36a9U, 0xbdfc11a23227f412U,
  0xebf8ba05f109e908U, 0xd30ce503eb18d0bbU, 0xed183101e90106d1U, 0x3e2370c0039ce0cU,
  0xfc32caf8b314c9edU, 0x1a0325eee5d0dee1U, 0xfcc91f1ee6e8b72bU, 0xacfc01e5e2dabf38U,
  0x1c43b6ff36d919beU, 0xd3f6c2e309e2d3abU, 0x31d64e5de5ed0e01U, 0xe7f20a470417ea81U,
  0xfc52d4e809e72dfeU, 0x18041bfae2f326f3U, 0x3630331d0b0ad3f9U, 0x17c3f50fc1fbcf01U,
  0x72bcfd6d34b12e1U, 0x2fed32ef051303b5U, 0xf128f85014f00f30U, 0x28f723f7dffbcb15U,
  0xce200aa303d931e2U, 0xf2f7a5e91aab28d8U, 0x1df645421bdbccf1U, 0x33bed100acd60aadU,
  0xa1614c01bb325c1U, 0x620042e2bfbf4eeU, 0x2e22dfea0be300fdU, 0xecdd03fbc8a606ddU,
  0xc1d803aee8d62ebdU, 0xf3d6f7fa2902230bU, 0xd70f07e4eec7af12U, 0x1206d601a3d9cd01U,
  0x50b5fd0505ebbd15U, 0xd5dfde39bcd5e5cfU, 0xdcd2a7d9fe0b27b3U, 0xf4eaf78502c4d4f6U,
  0xfc08e6f8120fefe7U, 0xdaf0fcfef5f3f0ebU, 0xf50502eff7fbeef6U, 0xede113f501f0e8e5U,
  0x11bec13f51df3eaU, 0xd8dd05fde9dbe2d4U, 0x5ede6f6041a10eeU, 0xfeff103eb05d210U,
  0x3a19c10c1cf4d1fdU, 0xb3fdfa81b9f79bd0U, 0xea125edb3dc1ec5U, 0xddf70bff1135aac7U,
  0x1227dff0ef1612faU, 0xfaf1ef1ad6e718f0U, 0x30efe1dede6de21U, 0x10ef0f170809dfffU,
  0xcfcd4ea19f41df7U, 0xe6fe1ff904fc07e2U, 0x18f2361810dedefaU, 0xe9f91524e40ad008U,
  0x282c031cf6df1bebU, 0xe62bf0e408e1ffdfU, 0xe16203201080320U, 0x31fedb181425d4a9U,
  0x1ff5f306ee06edf8U, 0x1cf81bf5feee18f5U, 0x1a25062a1723fb1fU, 0x17f9c8e606f1f021U,
  0x1d29dddc37e71e03U, 0xdb28dff71cfb251bU, 0x303d38f813150021U, 0xfeff81ae528e5dfU,
  0xcae20ca6e9e123acU, 0xe00fc0415c0f8d3U, 0x21f621b40009f6f4U, 0x1cd2fb37a7e103fbU,
  0x18fe001ceae00eeeU, 0xdb0bf13d230207d7U, 0xdcf1f1bc342611dfU, 0xefd8f800d111fff3U,
  0xfffae847daf61ed2U, 0xe41b1b19e9edfb12U, 0x16ed10f31e291a21U, 0xf8dff3070728fa03U,
  0xdfca15d5ccbe4281U, 0x181ffae11c0328ddU, 0xe4fb06c70ce0e63dU, 0xeed11836e5f1e0f4U,
  0x1efef523ddea1107U, 0xdff712f703d802c6U, 0xfd180fe0e91eeae7U, 0xffdbe209302ad8d8U,
  0x19d91e23eeeaedU, 0xbe2310ffd2ee50aU, 0xf8f01e0d0cf90adcU, 0xfffaf2050835e718U,
  0xe2c00302f1cd2fa2U, 0x1beffa331cef03edU, 0xc704fcbd0ad70914U, 0x1ea23dbeaddebf7U,
  0xc820cdd115db0ca8U, 0xeb0e1d19ebdae8f5U, 0x25e9351700e5df19U, 0xe0cf03df219e1edU,
  0xe620db2cf01f01f2U, 0xe717f23202e732c6U, 0x16eb113708efd434U, 0xe9e22df41df1d42aU,
  0xdf4f24b0d9904cfaU, 0x2b3ac10013c52fdfU, 0xe2e736e8ead3ec0bU, 0x43caf051fb2dc8ddU,
  0x1fd8063ee7a4d0a2U, 0x2deb3116ddfab8U, 0x210f70f20fc1dd9U, 0x23f2faea04f4ebe1U,
  0x4fed1668ce231bbeU, 0xeba1023ca0e19dbU, 0xc211e0b405fe0ef0U, 0x49e09ea06270903U,
  0x27edf327e9c42dbdU, 0x45da25192fb53eebU, 0x1ff61ae92a311d03U, 0x30eae8d2ca41e8c8U,
  0x24e3e2febdf92281U, 0xe01fe2e004dd16b3U, 0x8dddecea02fbe118U, 0xef1631e515b807e6U,
  0xf6c20323c74c85f2U, 0xe1a621dddbe0d1b6U, 0x94e6eb11ecdb29d2U, 0xd2c6cbdae32ae40cU,
  0xf6b5c12db80eefdaU, 0xfc03cadbfbe00b02U, 0xd80af0f01319f6eaU, 0xe1f91ff1fafec3f5U,
  0xce01e1ebedf1388eU, 0xccdbe4f509ccd52cU, 0xe413e3eaf518d406U, 0xf1d018dfd929c422U,
  0xf31dd9e2dc059eadU, 0xf9a705ad8910be93U, 0xe9a1b245dca0c6e9U, 0x8af2e4becbfbbef8U,
  0x5d5db3b1a36e027U, 0xd916cfcc27c60618U, 0x300ad60e2801e4f0U, 0x20f023e1ecd310aaU,
  0x3eb2a08cfe9e9b3U, 0xe912d717fef9edc4U, 0x111b0ed532d3e51cU, 0x21e129db19d6f028U,
  0xd407faee042d39feU, 0xc0ad2082daaeaccU, 0xee0f4414f2cbba12U, 0x1ff106f3e58be62aU,
  0x30eaf65e2c1f0954U, 0xb507a1cdd6cce533U, 0x4400ed18e4f72d0aU, 0x25ed4af54bb203dcU,
  0x39ec0e3ee7f3f617U, 0x7184c150bf30f21U, 0xe400f42e35e13222U, 0x2cb2c043fe8e3ecU,
  0xec0f0620a019f4ddU, 0x37f2ff3a0ad425fcU, 0xe6f4311223dfc93bU, 0x21ca24d5f516f435U,
  0xeff6ad0b1d19f017U, 0xdcc701d5e3cca8e4U, 0xf9d2ed2ec4c716d5U, 0xc4cd0d0202d88128U,
  0xe7040343d325261aU, 0xc3f9fce2d3e3f0f7U, 0x160aece3fe0b11f4U, 0xe0f022d80b38fbf1U,
  0xda06bdf7cf3acdc0U, 0xcfddf515e4e5c5e3U, 0xece32a1cf516ffdfU, 0xd60b27e3060417f5U,
  0xfce1e9f1f308b7c3U, 0x3af6c536c5f104cfU, 0xbac99bed211a11cdU, 0xcfea00ba08d2fdf9U,
  0xcd07f01919fb19d6U, 0xcd2005cbe0efbaeaU, 0xd6f811d0020f0bfaU, 0x1704fd21cd16bed8U,
  0xe803d3dade11faebU, 0xef1322daf0fb20e9U, 0xbecea150621e2dfU, 0xeafeeaf919e4f520U,
  0x3a05b72d12ef8b14U, 0x8bcbe2d9a203c7ceU, 0xfa8f0905dfed1b9aU, 0xec071feb2057bbc4U,
  0xf622deee1ae623e7U, 0xe0320718e9f50cfaU, 0xc62f0ae91dce1aU, 0x27c71714144bb718U,
  0x7fceaec1320fcd9U, 0x18181ae3fc081ec2U, 0x291b1627160b09f7U, 0xfbcdd20c070c0306U,
  0x16700df00cdc0dc8U, 0xbf40fcb0fcffdec4U, 0xfde67178ff0c1dfeU, 0x32ede563ef75df81U,
  0x2f42efe5ec1b20f1U, 0x3a18092df3f71fc3U, 0xb23e00efe091c38U, 0x1cf1c60de7d9d821U,
  0xfc0cb9d13bc00e04U, 0xf231ea1c06dee5fdU, 0x72113030b20e52cU, 0x24b8f029f341bcd0U,
  0xaf02b1f8d56800dbU, 0x113063d4f5190f20U, 0x62bf12a0bb1b218U, 0xeee900f5c9cfd82dU,
  0xcfed9dd8dae6dbd5U, 0xf90ae9bfed91f0f3U, 0xdceec1f5bfc500c8U, 0xe7eef5c8f8c1d3f5U,
  0xdc3ec6f327341bfaU, 0xf5f513e018f827c8U, 0x2a0339f320ede626U, 0xf6b92a0d121fb507U,
  0xc6f305cfe0f12318U, 0xee3633ea4354d65bU, 0xf44d090be4d1f12dU, 0xf212befde950946U,
  0xd5f1b7ba34e8efe7U, 0xde20ffbeabc619d4U, 0xe4c9d80cf0e1fcccU, 0xf1a627f104eec80eU,
  0x2f03e20b0a291ff8U, 0x1e0632171fdcfcbaU, 0xf4f519f2f6161947U, 0xe8d1143edee2cf09U,
  0xab9f03d7fcc72458U, 0xde2a42d32c25c967U, 0x1b50dd970704e4e7U, 0x4dd0c103ba12d02U,
  0xd00cd5c54ce3d913U, 0x2c212ff0eee018c1U, 0x34cae13107ddd6f0U, 0xf3d9e723e0d2c029U,
  0x10f5c2d932e14c81U, 0xfe422c24fef410d0U, 0xfff6f9231d4336U, 0x350315f9b93404f7U,
  0xd80ab7d1d9d722e2U, 0xc5d5f2111e2f0f3dU, 0xf824d4d1364e21f5U, 0x42dcfa1d16f814f5U,
  0x9fc7d0bb08a8f8dcU, 0x495ff21ad20f06U, 0x3d00ff1313f9383eU, 0xefd7f841e3f0f4e4U,
  0x16d203a60d09d516U, 0xe44bff0ce70dedeeU, 0x24f40ed646d80034U, 0xe3bf102eb3bbed19U,
  0x3bf9a4e2fd1ddce2U, 0xaef5081ee5ecfbf7U, 0xc425a6cdd0fd38ffU, 0x36f3e0d317ed81e9U,
  0xe3119bd95ceb5c47U, 0xd73cba19cdcd3de5U, 0x484002db23390a28U, 0x42d8f8f2f3a8dbadU,
  0x5323a735edea16bcU, 0xea51d34afedbfaa5U, 0x17fcccf928332afdU, 0x519401e5f2dd991cU,
  0xff5ef0ecd38cee3U, 0xe71970e7c911321dU, 0x4330f938ec60fe1dU, 0x3ebccd3714cebe1aU,
  0xf0d3a2002e452a15U, 0x10f5051b28de160dU, 0xf326ae0b36312d41U, 0xe1f7c9d72fc9b9ecU,
  0x36d0d86047fad717U, 0x142c3e1bbcbce4dbU, 0xfb04cf221a42fa0dU, 0xc9ec9d905e6aedeU,
  0xd2eed30f6d2e9d8U, 0x28d1241de8ee12e2U, 0x23e7f52010df1211U, 0xd90dc5fdbe0bdb2eU,
  0xfddddce33bbc005cU, 0xdb1a05dff919064aU, 0x2c0bff12e81ee3e9U, 0x33d2eafe12e2f6cbU,
  0x17f013b5eeb123fcU, 0x1632162a24090cf6U, 0xee0fe3191a27fd23U, 0x4d2d114f5f1dd09U,
  0x180ff347d3e6faedU, 0x2dec360ee40715d4U, 0xc81fff0d13161ff2U, 0xf60ee5dedc17f112U,
  0x35d9ef421b001775U, 0x8e1bc8e5ebd6d819U, 0x1513d5cb0835fcd0U, 0x21aee80a2d92e081U,
  0x28e9ed18faf50417U, 0x151425391e25230cU, 0x71aebe31c0f2620U, 0x28e1fa0c2912d5ebU,
  0xdd36e42acb35bfcdU, 0xdac80de1c2f3f5c9U, 0xe2d01919cdc115f8U, 0xc8fde9ffcb52d926U,
  0xe100c30bef22255fU, 0x931cdaecaac2d2e3U, 0x1ac80b04e5eafbccU, 0xfde50ffa23bfa9baU,
  0x25d2d81cda032019U, 0xfae7eb05e7f4f31eU, 0xe419e2db1a1f131dU, 0x12e90e04570c062bU,
  0xeefce9e0c11e05d3U, 0x24ec12fde10f1ccdU, 0xec12d904e506df0cU, 0xeedf1006f4a4fa18U,
  0xd6fb060919f9c8efU, 0xeaf1bdebe0f2ebfbU, 0x1e8bd06dafff0d6U, 0xc10cecbe0de91bdfU,
  0xe9f9c70109e311bcU, 0xd0f3f1e302dcc6e4U, 0x1b81bebfae2f7d9U, 0x20525eed60ee3f2U,
  0xc2f00bb581441dcaU, 0x28f2f8091b1905cfU, 0xd315de2509d3ed26U, 0x6f000dbe1ad1638U,
  0x9d9c6ed08f2f71aU, 0xce06e8efd2dece09U, 0x4e9ff05bbd624e3U, 0xa03e50ddc0dcd08U,
  0xd04ce1b33e913f5U, 0x231ce721f415fe04U, 0x150c2d0ef3f9ecefU, 0xef000311eb01d520U,
  0xd8c10d9fbc1400b3U, 0x2afc03fd3417f312U, 0xa638d01d29ccd80cU, 0xefed9eab4eeee33U,
  0x911bedcf93ef345U, 0xee0cd301e1d70ab9U, 0x3c2f106e6df0be7U, 0xe3c610ca07f6b7f1U,
  0xf637ec12fde5531bU, 0xfb2e081c0a133c3aU, 0x17072912fef40711U, 0x2e9174f25410f22U,
  0x1ecbf90fd4f3b9e7U, 0xdc505f4c306cafbU, 0xdcbd9c0bd1080ab3U, 0xd6daeabb20acfef7U,
  0xc315c2eef520a810U, 0xc2f7d2bca3f9a2e9U, 0x9d0250ac4ebf1beU, 0xbcea08fa0512e4f9U,
  0xf43cfc0c13321fdeU, 0xd60907c3c3f1f3d0U, 0x7fb2e0109ebeffcU, 0xde051fece2ffd91dU,
  0xe7eaaceddbe6960dU, 0xbcc49e81b4a49eaeU, 0xb99010ff8ed206caU, 0x99b3278ef30290f2U,
  0xfd09c1ff29d525f8U, 0xee1de2eededcdadcU, 0xefcd0af6bed2f9e3U, 0x25bb2007da16a8ebU,
  0xc1190dfc32fe1ee6U, 0x5571ce60ae003ffU, 0x27ea3934e2f71453U, 0x2c100530af63f8ceU,
  0xca06bfce010f0de1U, 0x1423d603c9ed07aeU, 0x11d3334ac90ac21eU, 0xe6fddb121b0dddcfU,
  0x2a5e0bc652da06daU, 0xe524d4472ba41ef5U, 0x2143e1319413715U, 0x37c0ac40c456e7bcU,
  0x236921b425d46317U, 0x3d30ed45150d4c07U, 0x20460b3b3a451f0eU, 0xcd7aa4cb9220205U,
  0xabf5fbb6b475e5e1U, 0xe1630e7f74cf32eU, 0x2020dd4ef3f7c116U, 0xfc18f921b8c9f719U,
  0xb009bd22f417f9dbU, 0xb3ab06df9ec9bae1U, 0xf6b8bfc9b2f0edbcU, 0xe4ac12f109f6a2c9U,
  0xe7f1a9e5ec2709dcU, 0xe4deb4bce2e0f9b2U, 0xddcedcf8e2d6d7c4U, 0xdef31fd8eaf9c50fU,
  0xacdf07820138040eU, 0x1b315bfd337acf4aU, 0xe360f558ef39fbf9U, 0x2de884fde6232efbU,
  0xc9fbd7e0eb24c4aeU, 0xd80e100fc22705d5U, 0xed0ad040f5c1fdf6U, 0x13bd050ec4dbd4f7U,
  0xfc3dead8f130e3e0U, 0xe81de0ebc8ed26ebU, 0xba80c35f2ec01f9U, 0x4ef20fd0206bae5U,
  0x2c95003af981f532U, 0xb5d92007291dc259U, 0xfc2ba7d8da572abdU, 0x19e58ce2699909a9U,
  0xdb2ef093edfe1d90U, 0x1f3f46f90c4ae713U, 0xec11c50112fa3527U, 0x50f8c52ed6d11000U,
  0x804dad40de03af9U, 0xf0f273af403f7bbU, 0xebd6f140ed11f91dU, 0x8faf00fa2efd00dU,
  0x1a1ee453de3801adU, 0x25f30d3526132e11U, 0x372325f8ed0c2f19U, 0xdef730f91422222bU,
  0x12e6e3e532031070U, 0xb3f0e5abe3e8dd10U, 0x1bc60a1bebe7ed97U, 0xece81306f7c6dbe9U,
  0x2b1ef4352d1d135aU, 0x23c3a16374cfe2bU, 0x2c3a221a0f312212U, 0x2dcd05271cec1e28U,
  0xfa221645c12bcbdaU, 0x1ece928f0f4eab8U, 0xf915ca16fbe900ccU, 0xcd0eeceaf53607f5U,
  0xc113d3332124e03eU, 0x8f0aabacb1dfaebbU, 0x1caeef19e3f4e5b8U, 0xe5cdf0050893d2e2U,
  0x1005f81d26291013U, 0xf232f0fd06defa27U, 0xe2d18fb0f132404U, 0x31cc3afa26d3dff9U,
  0xfe25f625af2ea9baU, 0xb48fd6b1a9c5bca1U, 0xfeb0f719d59f0881U, 0x8e0bfedbd111e9e1U,
  0xc319a7f4cf40dbedU, 0x8cb9cbb094cb81a3U, 0xcc95f1f1ba01ea9bU, 0xa6b91cad09adbb26U,
  0x13f7da08e70ade36U, 0xebedeb11e1b6d5ecU, 0xc6f908e4d339e2d9U, 0xcfc92fd630c1fa07U,
  0x10000ea801d023e9U, 0xeb0be9262d20fcc3U, 0xd214e3b1ce1fed17U, 0xfad3ede0d2d92500U,
  0x2f180d1ef9f932c4U, 0xd903cbd32ff4cbe5U, 0xddeeed0410fafd1fU, 0xf91a52fe2d3eecdcU,
  0x18b10b32c348cc2bU, 0xdcdeef0ad7291ff8U, 0x9ee0d8e60a0414d7U, 0xd41fe6bb0053f830U,
  0x14bedbdcb6ef12d5U, 0x252c22232137fd30U, 0xb2040d0626f00124U, 0xf2fdfb1aebdceacbU,
  0x3e419d7c6dd0081U, 0xeb0a1cd80805cf07U, 0xdbfd3efc0416cd09U, 0x12ca3303e7e504e1U,
  0xe101f9e59c3cccd9U, 0x29ac0cea0732ce93U, 0xecf4d1ebbab4d204U, 0xaee500de0a3bc32eU,
  0xd9df15f7da9e0e15U, 0xe004da0a0b230435U, 0xdd05e993cb1adcf3U, 0x2600a2ff06fc26daU,
  0xf5fa14e03f020e05U, 0x6ea22f7f0dce94eU, 0xf225fed529fc0329U, 0xf412cc3f031ac5d0U,
  0xc349e0e2d43b01c6U, 0x153b4c341138271dU, 0xe3080c3ae9dcee03U, 0x2d25f456ce06f81eU,
  0xf13e0ac8d1b031deU, 0x43ccf54d10cc1fbcU, 0xd01b0fdf26fb3410U, 0xf8f5e80bb03e2d03U,
  0xffbeb707deb949c9U, 0xf1f1c925f8e114beU, 0x20b389d002b1e30U, 0x2fbff63124efb4f4U,
  0x14d9cd47c9f9fe23U, 0x28d2e613d508e6f7U, 0xf0dfb7a6f8e253feU, 0x12f710b0ea30c81cU,
  0x35f9321e01e911eaU, 0xeb15dcec17db251aU, 0xd9312a1226dd0cf9U, 0xf60b06e7e417d304U,
  0x6fe0511a73328c8U, 0xd1090acb0ebaf2a7U, 0xdfd9eba61129f009U, 0xedc8dcf3f0d0bed9U,
  0xd1eff1f8012fd5f4U, 0xc3d1d8d1bce1d9e2U, 0xdccec6ebd5bdc89fU, 0xc0d4f2eb2addd1eeU,
  0x9e51b02f113f2abU, 0xa05d21bdd0d0dbbU, 0xbdf9f8c322eb0c03U, 0xea0843d8c927091bU,
  0xf1c40714a12c10a1U, 0xdb101618c4c8f109U, 0xc608ddafeed5f9c7U, 0xed14bcefbd0a92fU,
  0xe2ecc11ccd17b835U, 0xd1c7caa695f99881U, 0xff9bbb31aac308c2U, 0xd3e018b710d5e445U,
  0x5df40c3b130ccb45U, 0xc8f5df13e9c8ccc8U, 0xecc1181d04224ee0U, 0xe40de8de523d1304U,
  0x6e20eb36ff211f42U, 0xddffd518d0b6ede5U, 0xe1062b080c0413eaU, 0xfbc0161b253fbbd8U,
  0x32ffee45b3ef160cU, 0xd40fe325e3d9cee2U, 0xdd22c9cbf5f4fd0dU, 0xf0c121d21ef1c1edU,
  0xe158f4c2fbd835aeU, 0xb827df0604c1f6a7U, 0x3ee31d7642eeef22U, 0x2eddbb3ac848bfbfU,
  0xde33d3e9c812edcbU, 0xfae51b1812def2beU, 0xee3b39372f1cf2fbU, 0x3809e523b82ff7dbU,
  0xa11bae6b8ffd9f3U, 0xfeea421709d527c6U, 0xf8f42f5401f5bc37U, 0xefddf511c0dee113U,
  0x3f10273017bdec0aU, 0xbe0bfb33e9e0f422U, 0xd5152ee7fb312be4U, 0x421b2e44fffe981U,
  0x46c2d63029d822d4U, 0xf125dae1fffc241fU, 0xfe27e2ef2006091aU, 0x29bfa9def003fa9bU,
  0xf416cc1aecd525bbU, 0xe6e82deff11015deU, 0xe23d0a183b16f6ffU, 0x1bdfb102d1e3ec33U,
  0xb05dee5e51206d1U, 0xc819220dfceae3c9U, 0xe8c9ddfed02408c2U, 0xfee0e1ebf121f0b0U,
  0xc282ffc12190946U, 0x92fe6f51ea6de0aU, 0x22edc403402af8e6U, 0xe8e9dbe327c5d8fdU,
  0x69d84df840d5471dU, 0xf836fc2c4cee1619U, 0x2dfef10c20503cffU, 0x39bfce35fbf10db9U,
  0xcf0201ab07d22e02U, 0x24f6e129f516fbb2U, 0xe40a2c4fd61a22e2U, 0x15ddee3ade361198U,
  0x17f334cdbbcc0b8fU, 0xf33615fed4ca2ed5U, 0xfeda013b16eff01cU, 0x2216c0269ffbeff2U,
  0x40fc2a27cff404c5U, 0xfe1f154cfb0e3dfeU, 0xd005dbca2d040725U, 0xebc9d800fa39bfbcU,
  0x4c1929e61de51115U, 0xf5f4e12b10d0f9ebU, 0x22d010fb261c231bU, 0xc1ce3dd0d22e19cU,
  0x2f121f2810c327a2U, 0xd62f25ff27d315f2U, 0xdcfd37091f400801U, 0xf117adf2d7eeddfeU,
  0x23eb1ed5cae6b1a9U, 0x2efee7e100e7dcc4U, 0xb9efbabc110d13f4U, 0xb107efc6813fdcf7U,
  0xe6bff5f413dffb05U, 0xe311f4081644da42U, 0xed19eaea03231d0aU, 0x1d0e0003fce5eccbU,
  0xb0411c431c803e9U, 0xf5091d0c0cd614feU, 0x140ed6bc13160408U, 0x31ddcef1f2abcbf3U,
  0xeb08feb1f7eeedeaU, 0xf7f0f5e7162215daU, 0x325fd1836f01911U, 0xcd10de1c2140e21U,
  0x3defe23c11e80d22U, 0xb4eccc06cde4f734U, 0xfceeeadb160b1cefU, 0xebdef9094dc7f2c4U,
  0x1ef0258f3bf132bU, 0xdd32e0f812f60b4cU, 0x25fa0de0172af8feU, 0xfee3e1f62de6f2d1U,
  0x27d80e121bed35e6U, 0xed1cf92efde333e9U, 0xe443d6cd1f103119U, 0x3f6151d0101dc0bU,
  0xd42aac09053dfd13U, 0xc7d3e8ad92c9a9d8U, 0xe681ea0bbdc511c1U, 0xcdbcefd40cd4c016U,
  0x27f30026f8ec1c31U, 0xfedd11e7fe080613U, 0x12ec0ee0d8f4f202U, 0xec9e6135e11f6f6U,
  0xcdecb0ced2a0406U, 0x6da0aec0af7f20eU, 0xeaf5f809e4180ee5U, 0x24cc0c042f1ed4edU,
  0x1c113bf8e5f2de03U, 0xc21338e9ea3ae53aU, 0x2644e84813fdfdfeU, 0xfe06fc2b21e43ce2U,
  0xad1dedaaf71dded0U, 0x1d2f31022b2111e2U, 0xf4eaaf26f93a0c1cU, 0xff12a82197e9f906U,
  0x173cdec8432decfcU, 0x28e1150e08f22cc8U, 0x4e3ee080f00ec3eU, 0x2317e4cc9ffe2000U,
  0xed9e2e000b2522c3U, 0xe2e6b3e6cebef7d8U, 0xcf5b8ae1b3b0cb8U, 0x1a17ca16be81d9bdU,
  0xccecddb010113dffU, 0xa3b04df25e51b4eU, 0x1725ba12fa19f3e7U, 0x25e69701c5e9ffdbU,
  0xd11e22ecf105f8e5U, 0xe6f3d8401c0dfaddU, 0x122b211f7e11010U, 0x1ef8c916b6d7d70cU,
  0xc9d008ebf810e5b3U, 0x412ff20f9d50b9dU, 0x6df9b89e7d009c9U, 0xd6fe0f14b9eed0eaU,
  0x12d2f5f2f0e742f9U, 0x645dcec35ee2d16U, 0x1b3725a8e236e309U, 0x2ee3dd2afeb3fc0fU,
  0x18cc171f160516ddU, 0x31482f050c1716beU, 0x3720a4b423300b03U, 0x2fc2e91d0ae4ecfdU,
  0xd4e9c2180000a2f2U, 0xf4c7fcd7c2d993e2U, 0x13afdfe5b2c716a3U, 0xc5d24ff62503d92bU,
  0xaa5dffe80a1cf8dcU, 0x81213e9faefedd4U, 0xfc0c6542bcf5f02bU, 0xedc3b2fdb3ceafbU,
  0x8f47d60dfc36ebc4U, 0xf12f12e1e7050bd9U, 0xfd07417f24e0b846U, 0xf7c5f917f8401847U,
  0xe448d6dee4f920f9U, 0xf725e412c4b4f3aeU, 0xf3d53850f8080813U, 0x1b01effadd37bd00U,
  0xe00013be2cfa33e9U, 0xef3acee001c62abeU, 0xddc233427d41e10U, 0xf9d9ed24e2eed5f3U,
  0x12480ab8190500daU, 0x1139111e2dcd1ffbU, 0x30faff3439123e42U, 0x12f80c409ef9c913U,
  0xbc3906b3fda61cb6U, 0x628cc1c1bab3305U, 0x17e1ef021ce20e25U, 0x12dfb808d00803dcU,
  0xcddff9d6f5852883U, 0x2810d14005fc04c4U, 0xe5f0decf12fd1204U, 0x1becba029ccafb01U,
  0x9000eb3b69c00baU, 0xe902dff734db46c0U, 0xf7f9c8d72b10be0dU, 0x5f2d3dea999dceeU,
  0x31db3cf4a1acabaU, 0xd6e6c4fa94a2fb81U, 0xf6c2324eeb05cddeU, 0xd0cbe3f8e050d7dcU,
  0x3578b6ba04f905abU, 0xe1380d16cdbf24d6U, 0x531d73611afbd110U, 0x7c90851dc7d8f11U,
  0x1a3cc5fe280626d8U, 0xc40b330ed8d6f5cdU, 0x27d93736ffef1224U, 0xfde8df0aabea9107U,
  0x1a57c0e242fb5adeU, 0x98ff9304ff86fab2U, 0xbb43b131030f1ceU, 0x19e5e81dbeffacd6U,
  0x7140cf23fca354c1U, 0x16081e20f59458caU, 0xe2b42e7fa3a0e51U, 0x10ca0b4d180ab7f0U,
  0x20119be9ffea2116U, 0xfd280ee815cd34cbU, 0x3310014102b24U, 0x2dc6e928caefd922U,
  0x3d03ce1320c81a07U, 0xd20c9f051cb918e4U, 0xce6ee0a410e3622U, 0x1cd1d6414716cce8U,
  0x4f16f953b8ffebe4U, 0x26cae7511aca30a7U, 0x16ec2c9738fffbf7U, 0xe1cac7e00a45f2d0U,
  0x11f6b130f8ffec22U, 0xf8e0b80bc5d0e40cU, 0x1513eee30915ff08U, 0x1ec901f65bd0b40bU,
  0xf9eb2d27da94e5cdU, 0x34d7d500e014e80fU, 0x4ee284feaf22610U, 0x5ebfee34eb59accU,
  0x2fecd0d7179e3606U, 0xe217c5212baa33eeU, 0xb81db9151828b90aU, 0x1a0adc0abc24e2a9U,
  0x1f16960b9eac1ea0U, 0xedb0ef262bc4c5c5U, 0xa7c3f0d3f8ebb70aU, 0xd3e9b3bcbe09fd2bU,
  0x5142813f0e82015U, 0xfb32db050020c0e2U, 0x1c3024fd07d9153cU, 0xcd191c1a65d6d781U,
  0x4a06f02b18e3f2c5U, 0xae93421ec142912U, 0xe42dfff6ca3d1417U, 0x190fcdd14abadcf1U,
  0x4503eb6002e6f781U, 0x1bbb382ccbd21692U, 0xf018c5d1fceecd40U, 0xc60008f0fea99348U,
  0xbff2db1215de1342U, 0x11f4fee43ade03U, 0xca030f1fbceed9edU, 0x3120bdea0618b7e3U,
  0xea40f550e0052e19U, 0x2cca1ceeb1f7e3d2U, 0xcb220f3023bedeccU, 0xbee1201c15e2dce5U,
  0xee1f2d0eef26b8e5U, 0xf4dad1fbeb41101bU, 0xab25e3f109b9c1c2U, 0xca25edd4025d3524U,
  0xb831f7c2e7d918b2U, 0xfa24f111ef192de0U, 0xfaf01109ee0711f4U, 0x2edf911d5ec0ae5U,
  0xaff5f7c3ebee0ffbU, 0x7f00806eef624f6U, 0x28162737f5e8a8f7U, 0xfcdbf408e81cf6e6U,
  0x81f6eab8c02bc6caU, 0xcf62ce9dbefddc9U, 0xfdfc081bf6bdae21U, 0xafe204c8c5fc0921U,
  0xde105530ae41a04U, 0xe91313231701eefdU, 0xf710f6e021052c05U, 0xe6e2040e25c7eedcU,
  0x28e11928f4daeb09U, 0x61c1219f40d030eU, 0x423f4f3ec1121deU, 0x2bdfcafaf9e501d2U,
  0x7e404f0e50de213U, 0x1b1a39f2f0f005e8U, 0xdf12cb280de2f5f1U, 0xea0eefd6f6de0a0cU,
  0x1701f23cf222fc12U, 0xcdd6f216d910f8fbU, 0xf510e9ef16fb2ecfU, 0x10f507d8554709e9U,
  0x2dd00e551811e14aU, 0xf9f205e0f5d6dc10U, 0xeb120dd11f3a19f0U, 0x23dc121b1de5d9e0U,
  0xf3f33437f8fa1dU, 0x91c11fd07291e1dU, 0x2c21fa0d23201ce7U, 0x7edf62830f214e0U,
  0xe11320cdf1dbfff9U, 0xe9f95ce10448093dU, 0xe44d91a0c1f0a1aU, 0xedf8c50de9f6e5f6U,
  0xf6fddf9116d1f6cfU, 0x1b193adf17fddac4U, 0x3510cb40101eeaf4U, 0xf409c5eca2ebd811U,
  0xb111dd810ef317e7U, 0xf633020bfcfbd51dU, 0x35353055f7e4cdf8U, 0xbf3e205c7020e3cU,
  0x19ca0f2c1814302cU, 0xe5fdc918da2a1f1fU, 0x2df7a5cae61704d7U, 0x2cddeaf348b7ca92U,
  0x13db1510ded520faU, 0x14f724e72c26f21eU, 0xe5fefef4ee2026e2U, 0x3fc9b4e11fc6d7d5U,
  0x1be311fb28022620U, 0xdefac31e1add14f6U, 0x2940ded4ffefd832U, 0x2ed600221dace8d5U,
  0x3509b466d925f03fU, 0xa2c313b994c6a1c7U, 0x18a3ee31e91417a1U, 0xef0fcfb3cd18fe7U,
  0x2816c7181e0df173U, 0xfbeff410f4f8e84eU, 0xfe19ead216fe0cf4U, 0x15daeed82a0211fcU,
  0x28de104c26092c36U, 0xc013d61de1cfff2bU, 0x3311191e2a0c06U, 0x3eff080d4ec8ba10U,
  0x2516b87f40de380bU, 0x152cf0ebdaf328e7U, 0x2605e20dea1ceff3U, 0xaf6c90d4eb4f20fU,
  0x26d30a462acdde03U, 0xe3dec43305dbf1d8U, 0xfae0f3b82bee44bcU, 0x34beeeed000ad0a4U,
  0x1c06f11534d8d453U, 0xd7dcfc3c28cffd10U, 0xe5ebdec3535ed39U, 0x2df5fed839f1140bU,
  0x24d1105fd8dbf715U, 0x31f208c4c1edb9f0U, 0x30ca37f4d8cee710U, 0xf10c44055b51cb1cU,
  0xe201ff3ffe4c1e3U, 0xe8d41bda06e50ad7U, 0x2ba31dfdcdb9272cU, 0xcff6e6dd273ef4c7U,
  0x20dfb7420d19d651U, 0xd3ed18daf91b0517U, 0xf9cad320d50135fcU, 0xe4fa2ddf1dddfb42U,
  0x30dbf6d8bdf0e5d1U, 0xbfd1f1f6031e3e17U, 0x4234536f9220416U, 0x3bcae6031c271ef4U,
  0xe4dd12e52e09efacU, 0x91c21d6c0aa09bbU, 0x30fe2eff2b0b3023U, 0xffd6c420cf05d3c7U,
  0xd32ee2b2fdd1c412U, 0x7deedfde62ffc26U, 0xf82afff63d2ef5faU, 0xdad3f506bdbaac04U,
  0xf912aa0bf9ddcafeU, 0x87e3bc8bacdc81b7U, 0x3a9dee5a807e6a9U, 0xdcadfcc702399593U,
  0xd340080ae8f9eff1U, 0xdbfbc8fd03af0fe7U, 0x8dd0c03d40015dbU, 0x3da0401d7f4ebcdU,
  0x127d81508f407d1U, 0xd90e37dbfbef0c29U, 0x8fe42521606fa1cU, 0x24090f0ff720c90cU,
  0xe954d7fe332328e2U, 0x22d1ac31801ec0bU, 0x32e14e34c9332ee6U, 0xef0dd6312330b6e6U,
  0x26000505eee502d3U, 0xf3ef1f09f2022bd4U, 0x2eeffb161cf50cf0U, 0xaefedfdf0e0fd1eU,
  0x313bdcf118fd360fU, 0xf0ff15e71701ff2eU, 0x21211a03f4fd0cfaU, 0x3cf5ed50e0e6e9d5U,
  0xef1aeb1028f0190cU, 0xfb26200ff2ed1fd6U, 0x25e63e3ee83a11feU, 0x100cd23cfd41f397U,
  0xf40efdf9c6f11cdbU, 0xeff00f0506d029ecU, 0xf4140df724f8f9f9U, 0x1309e206f0d21a04U,
  0xdbdfd6d0edb63222U, 0xeefe08f703defd2aU, 0xea3c51e40e1d0c2bU, 0x1d04de2ddbe2cbf0U,
  0x1beaff4018b4143eU, 0xc308b4de2c01f2e9U, 0x2d2cf2c72b16d608U, 0xf2fa04418ceca5U,
  0x2adc30e5e3cbd8f1U, 0x1f2e2ff13a1426f9U, 0x83c11bdf6f0ddf9U, 0xebf8cecefdf8292bU,
  0x262fe50d02b63b50U, 0xc37bd2225b0310cU, 0x244cf1f82c0d0009U, 0x37e2303149b0ccfcU,
  0x3cb91874ee2af743U, 0x9fcca21adec8043cU, 0x2c14f2f208ec44a0U, 0xd6e915e17701f1e7U,
  0x3bc7e22bc3dbe137U, 0x7fbbf2619d7e5fcU, 0xae239fba202bf104U, 0xece4f9012c320fecU,
  0x38e2ee48d4f7162eU, 0xeb0db5fb03ee08f8U, 0xeb03b6da132104ffU, 0x6a61eda57f6cbe1U,
  0xe61a8de8e01e97fdU, 0x9fbf3b8a90b2d781U, 0xf2965056bed7f5c6U, 0xe9d101f5cb2983f0U,
  0xc812bb0dc906df10U, 0xf521b5be29b9cdU, 0xf9fe1efce8ddea02U, 0xf8fc11ccea2df70aU,
  0xa8ebde112c23bac6U, 0x9de0e4fcdaf101dbU, 0x27c60c0bf6ced412U, 0xe69fdfe2f800c608U,
  0xbc28ebd9dc3bf6ecU, 0xebd6f1cddadaee00U, 0xee0ffe10f5d1cfecU, 0xcbc5f003e3cbf8e7U,
  0xad04f7e8100be10bU, 0xde14e8f8bacabf17U, 0xf7ffe60cf4b7cddeU, 0xfde4fdd3d724d8e1U,
  0xe503cbeff816f5e0U, 0xf20214050ae509f7U, 0xf3f62c1bf1d3f32bU, 0xef041105b613d704U,
  0x13f4f1dfa7290ed2U, 0x1af2122a1e051602U, 0xf022fb26130cfa27U, 0xa14111afaf5dd33U,
  0x1215c8eb45f3ef2dU, 0xac1bd5ecf7fcebf9U, 0x2a09f5e3041c04efU, 0x1de5d308f8f1b9f0U,
  0x43fff7e60ed82ed3U, 0x8eefb3c0b0f2df4U, 0xc103315282527U, 0x31def3292110ed15U,
  0x60ed5f1daf214d0U, 0xf11005fffe18fa23U, 0xddfe09ebdbff0619U, 0xdd152efe22331129U,
  0x1d0dbb200bf90b43U, 0xf4efb603ef81d1d7U, 0x21dcf001f0e81b07U, 0xfbbd0fd311f9b7ccU,
  0x44f7070ceef91cdeU, 0xbf3e114220f10d7U, 0xdafd21ccf9fbfb21U, 0x11ed161b3d1c0817U,
  0x9419d6f02801cdf3U, 0x9fbeedb1db999a87U, 0x48a323f92ddaac9U, 0xadc62802d20298e6U,
  0xc44fbc0749ca20dfU, 0xcf28ed00f8fcefe4U, 0x3ba42003cbcec20bU, 0xd7cc2267cff7912fU,
  0xe14d05b03d0e4acdU, 0xf7ef09eb12e9efe8U, 0x3b1cfe4be20bfe14U, 0x2bb1c609bee581d0U,
  0xdf061d1324a33caeU, 0xe828a622efa00ad7U, 0x1caafb16eddad2eaU, 0xdbd0285719ffd236U,
  0x5d2eea0839f761b9U, 0xdd2ed129deb047ceU, 0xdf2bdeb74c20dc36U, 0x36cfb14ce1cdc7ceU,
  0x392315c8f8ed37d2U, 0x18f5dc4721f945e5U, 0x2eddd9b6533043e8U, 0x3ca6b73303bdae20U,
  0x5ad00502fa0b04ebU, 0xee0fc745d9d824b5U, 0x19e303c21425f21aU, 0xf0ded16360b2819U,
  0x32292b3e2cc732a6U, 0x810cc5427bcefa6U, 0xe8d740072f183ce8U, 0x7c10b0af668ef03U,
  0x25fbc54206b1e622U, 0xda0ee9431df2f5f5U, 0x12a1da8291b3528U, 0xf09f032c2d6ae5c5U,
  0xd524ecd1301e3abeU, 0xdcf5e90f24081fe9U, 0x17e91daceb1ccef8U, 0xe81bee2ff4bb2accU,
  0xcbd52305fbdf2efaU, 0xe918d9192c0b20e7U, 0x40c30625f10c2827U, 0x1ce2261c1de00539U,
  0xf702f52b20db3b15U, 0xed080f10ec090d16U, 0xfdcc25fee42ff524U, 0x111ad904ddda2411U,
  0xcaf8e7b41cca35deU, 0x1520e305f4ae17f6U, 0x190ef9bff9f3dbf9U, 0x2b09dbfd91e423b6U,
  0xceffcbc741b7f0f8U, 0xda00c130e233ccd2U, 0xf316d805e0e2360dU, 0xd2c32be9dedde8d4U,
  0xf9321a28eb08d3f5U, 0x102f1f122092026U, 0xdb0ee30aeaeeefe2U, 0xe9f0dc28e8e6dee9U,
  0xbce420b1ff8107d8U, 0x335d3263611ed01U, 0xc71041a51de1ae0cU, 0xd1f1d630a9040706U,
  0xf43407a13e1d03f5U, 0xf515fc3219eaf9f9U, 0x60be6f6260b03fbU, 0xded90ddeebfbdef5U,
  0x21fb13ea2bf60bd2U, 0xe30e2ae7040514efU, 0xeffc02dadfe4ff02U, 0xfd15e61ee04f10ffU,
  0x5fc526481e07cdc6U, 0x3a19314536e91bb8U, 0xb1f8b8c1063a76ccU, 0x90ddaef187f3825U,
  0xf4d0020bde29d5fdU, 0x180806ed21eeec0cU, 0xeff8eca71e040e01U, 0xeefdffb912190ae3U,
  0x29d00e16031bdc40U, 0xf0f0b301dd0703f4U, 0x10b5b7b3e6ed4001U, 0x6010eb117292105U,
  0xe1b1d2e5dae8cd9dU, 0xc2efe1d6c7c2f2a6U, 0xd58817e9df8639c2U, 0xa0e31fd7e60300e9U,
  0xcd13f41e0e2216ccU, 0x1e31e1b6e2ec0fccU, 0xd2a3560acec72118U, 0xc8eae932fa550216U,
  0xaf18dde9c22608bdU, 0x2ce19cbf1e0d6b1U, 0x12b22314c08ee429U, 0x98180bf2f3f4c6e6U,
  0x1f130e01d0fe17a6U, 0xe600dcdfd7c0cac8U, 0x2fd9e75105dedcc6U, 0x1dfa414e60306d5U,
  0xebfff8c8f3cb18e0U, 0x302a11ed3b2b371cU, 0x2475432130dc51eU, 0x3e042c01ce4612daU,
  0xe2182810e20af2cfU, 0x4e7e0eb2c351817U, 0x64212500628013dU, 0xd9291be1f9d83714U,
  0xdac8df810aee3f04U, 0x1927dc281cf3e706U, 0x12f1e69af1d7e2ffU, 0x33ceef01d5be03ccU,
  0xe4eefae118d9f9e4U, 0xdf4c10128d838ffU, 0xefe3eef1fde4e408U, 0x2906ff170fec0bd6U,
  0xa21e0380ff61ed3U, 0xf911312e260b1fecU, 0x31e17140c322af9U, 0x271ed64c431edef2U,
  0xc1fbff8cfbc10accU, 0x71bc31e25af1dfcU, 0xfef713bcfcf5d41fU, 0x17c2e42fd4b70babU,
  0xf3fa01f3f5d1dcafU, 0xed6eb0e13db14bcU, 0x4f1c1fdfd0a21fdU, 0xfbdcd6e0b305f40cU,
  0x2619db06fbf2f6c3U, 0xf70f1218011009f1U, 0x11e7f001fd212c01U, 0x10faf33eea09f6e6U,
  0xd8dce284f1cc3cd4U, 0x425ee00f4050e09U, 0x111950a8091ced42U, 0x36ccf00edb0411faU,
  0xe61619d602b516b8U, 0xefdff31c1f09ebdbU, 0x409d2dd2feb1025U, 0xc9d9e5f4e9dc1825U,
  0xffa0c27d11e04e9U, 0x22da32260903ede0U, 0xc8dfdbd41c0c39f9U, 0xcdcb03fc3dd0e6U,
  0x5218d87808bb1e61U, 0xeaee92ef06f8cb0dU, 0x127e42afe384411U, 0x39f5e5e047ebda81U,
  0x35e4df4316f21ef7U, 0x1a3cf80934d7f017U, 0x14f3ebb9f22d3e1cU, 0xbd6c4d0200bf1b1U,
  0x26f4071bc6ab0817U, 0x1d19de1f39b8eef6U, 0xf14401c342231318U, 0xfef318ee4b0915f2U,
  0xd919a413e910a86bU, 0x900c0ecba5f8c6faU, 0xfea02848ea03ecb1U, 0xd1f3e4ef212388caU,
  0x925d0041314145cU, 0xdb11dcfbd9d7d5d3U, 0x20dc453feec63515U, 0x18da21e61f15f016U,
  0x1d37ba20ede9fd23U, 0xfce02ea060bf40bU, 0xefef2e18fbef2ef2U, 0x12f119f3120fedd1U,
  0x91fb5b52ef3ffd8U, 0xa7f5e701c9d8dedcU, 0x1df14854f643fb0aU, 0x50fc330a918e9e3U,
  0x3f45f1ebfeda13e8U, 0xde304ded240ae9e3U, 0x93b081b3c45fe01U, 0x2ee6b424f813cb09U,
  0x3dfae1c71ff83529U, 0xcd3547da01022447U, 0xf03a26fa29110c07U, 0x36f0053e05161b26U,
  0xd904e7ffdfc110baU, 0xb2ec430e1d719c2U, 0xae3fbeae70a0c02U, 0xf4d4e2d9dd05e798U,
  0x1dd92fe50ce40605U, 0x14fac92af600edc2U, 0xbf808c7ee060404U, 0x30faa900e3cd20daU,
  0x59f3fc2d0e1019e0U, 0x3ad9016a00b35ccfU, 0x121a01ee18503d1dU, 0x9f913c7db002325U,
  0xc801dfbddad512caU, 0x122fcd161bdc15b5U, 0xf20f7da0300f5feU, 0xdff0c42bb424ed96U,
  0x23f0ea15d3cf3281U, 0xf025fe31fab02af6U, 0xbf7d1d900e6f912U, 0x22fab519dacf13f8U,
  0x14c4f244c0e5c2d8U, 0x3ad3d74a0ced0993U, 0xbc0ed6f425de0bfaU, 0xe6ddff03f428081dU,
  0xee5f3290fc5e9daU, 0x14e1c8323403fdd5U, 0x210deff23c010518U, 0x1ed2e9edd3c9dfb0U,
  0xfde8f70fded820cbU, 0x51c08263205000eU, 0xf20933da172fd72bU, 0x2dd4b1f5ec15dd13U,
  0xf5f50310c4fd05a8U, 0x24ebd92111f9e7baU, 0xebb0abe414f8ed1eU, 0xbfccff06d9eae52eU,
  0x2a04ece0c5cae102U, 0xffde33e4e1fff833U, 0xe40def1f341805f8U, 0xf8021cdefce3c7U,
  0x82001ec23da28eaU, 0x1134d914f3d5defeU, 0x622fe192407f40cU, 0x42fac0e4abfedfe7U,
  0xd6f708b6d529d8e6U, 0x10c2cf109000eafU, 0xfd32111918d610f9U, 0x435f0cee3ac0e3fU,
  0x3ebef66014d3141fU, 0xdc05b7ccd5fcf3e5U, 0xdf23eab8f80825bbU, 0x1c16d4c90e9b0f81U,
  0xc0c1e1b2e041af3U, 0x26f1e10dedfa0e07U, 0x2c3befef130f2404U, 0x11cdaa3af3b8f0e0U,
  0x42d1e8f4cabf2616U, 0x21f5f33c3a1200e5U, 0xd63edbcc3025de0cU, 0x2f2ea04eff11e22U,
  0x7febf4ddd32d70bU, 0xc91ae9e8cdefd0c4U, 0x20bcc949e81a32daU, 0xf132ebcf5514d90cU,
  0xf916e509161b2140U, 0xe92af02af9de0104U, 0x1ce719ea1ef4cdebU, 0x38fafd194fdfdefeU,
  0x4df251900200cdfU, 0xeb281006e614ebe3U, 0x1a1a0b18e3ea3bdcU, 0x81fc625e1e42517U,
  0x3d06e6fcceea38b4U, 0x45fb404636314912U, 0xe1153ee71c40195cU, 0x2d102f9c453f211U,
  0xc1eebe0a3c050629U, 0xa6f7c3a6aef0d1ebU, 0x26e2e1d6dcf7d495U, 0xfee8d11ddba8a781U,
  0xafce1ed21b52720U, 0x1f13273b1a081eU, 0x1c2125ea273a3525U, 0x2ccd0b1d08b805fbU,
  0xae0fe4bc806d29bU, 0xf1dcd3151bf203f2U, 0xdbe9f0cfe2f6fb04U, 0xc8d3cff6be23f105U,
  0x15d8a5161bfc046fU, 0xa9169bc69d81a3baU, 0x18b4f3dcdc1de4b3U, 0x5b107dfe99e948dU,
  0xde4e81d01e91643U, 0xea3f0a20213d1422U, 0x282311dd2c312825U, 0x2ed6003936f8f204U,
  0x12f30828ec2ed4d8U, 0x40e0e02e8e9d6c4U, 0x6ed0512e3d5dfe9U, 0xf5d32dffed29f500U,
  0xc8f5ef0023f50e59U, 0xd7dbd5e1a7cbe3e6U, 0x28d6e0effdfaf5f3U, 0xe7bc0a0f05ceb50bU,
  0xfc04da34fe160d15U, 0xf5f2092fea112539U, 0xfb321fcf1e372c04U, 0x1bcb00f651d6ef0eU,
  0x17ef0bf4e904cde2U, 0x2600eff01cfd2cf4U, 0xff04084d2ce9b901U, 0x25c814dcda0bfa1aU,
  0xd909caea22ed3dfdU, 0x2911ef0125b036fcU, 0xfce0071122e1b54aU, 0xfeb9f922f2860b19U,
  0x1f010afe0611f414U, 0x1ed7f334f3f4f7cdU, 0xe41bd6c020e737eaU, 0xfa07d6b1f74c0e2fU,
  0x18d9ebfe0be5d7e9U, 0x20ed92606daf4dbU, 0xda1cd33a111f3addU, 0xdd0014d61a0f23dfU,
  0xed3183b96f800e8U, 0x418181710f8372eU, 0x180edf0534041fU, 0x30c426f85341f643U,
  0xe0ece6f3fe40a0beU, 0xd3e6e4c9e6b8bbc6U, 0xf9b2b3e7fcbc0ed0U, 0xb1c735b6f632cc11U,
  0xcbf5e315c9c7b90aU, 0x616d7bd0ae1d7dbU, 0xdbd2eed6e3eb15cdU, 0xe2e929e021d4f9f4U,
  0xc906db12c8e800c7U, 0x4edeef40a1ac1fbU, 0xb8c8e2f3c0edd510U, 0xaccaefb4bd15bb3aU,
  0xb626fae8b52ea4a5U, 0xeecc0ed1bdd1b4aeU, 0xb781ebf8e4dbd8ceU, 0x9cd3e4fbe5e1c418U,
  0xe9001af924c128e2U, 0xede90323ca26ecU, 0x442862eb13411720U, 0x14f2021bd1ffd7d2U,
  0x3c010617f9f7ec1dU, 0xf0fd121f0fc20deU, 0xd0230bb61c0104efU, 0xef270200fc0702faU,
  0x2ac7134a1fdcd730U, 0xe8d742ec0b3bfa19U, 0xcd12dafb2b3b0ed2U, 0xf101c2022bf3f122U,
  0x7d6291afcf9fc81U, 0x15d84547f62c2bdbU, 0xd50c34d92729133bU, 0xde0a0d06ef450c18U,
  0xfee7e2cb06171cc9U, 0xb91cf0d2d901fefaU, 0xea1514d6d4fe08cbU, 0xfbd8202aede2ff0bU,
  0xfdac90bf9e6f826U, 0xd3c7dfc2bf07e5cbU, 0xf1c9e0daf8fd13deU, 0xe4dad4e306d80000U,
  0x2cd5d20bc309cfe6U, 0xab60e27d0160aceU, 0xc6db00f021194ad1U, 0xbdf324c10a10f9ebU,
  0xdbebb518f731f110U, 0xd20ae1f9e0eec50cU, 0xe7f8e6dff420d00cU, 0xfdbcf1befbf9f8deU,
  0x817c628291be01dU, 0xf007fbc916fbd9U, 0xe0f2ce06f5ff1ea8U, 0x41c170929e516d3U,
  0x37c21f55fa1709beU, 0x1ec91d1c09e1e2d8U, 0xb60baed44e035127U, 0x1d16dfe0ed30f229U,
  0x19a0f922882ecf90U, 0xfbd2d3e816e9eaf1U, 0xc7d5d6eafbcaebd4U, 0xf99606a123e2f422U,
  0xc8019f21f8f0b6fbU, 0x94b6b0a781aa8795U, 0xfbcad823bce3fcd0U, 0x9ce5edb5f1f4a033U,
  0x2200f8172be105b2U, 0xcf0e1ddedc12cfe8U, 0xedecdcc0e9df2501U, 0xfb16fce0f74507f7U,
  0xccf9fffcdd1bd69eU, 0xe014c9e305f1ee98U, 0xf7cfea3ef6d9d4faU, 0xe3d01608cc1be40bU,
  0xa503e0af3c10ddebU, 0xdc284af6e305dbccU, 0x2dd5531cbac9af0eU, 0xf2c90258c72dd7e5U,
  0xd626c6d139e83ef1U, 0xdf05d116f7af05f8U, 0x25df0619cdd6e621U, 0x1ed6df00bd05c0fcU,
  0xcd3acbd537d3d9ebU, 0xfe2f1503fce1faeaU, 0x21ffb2e00d2dc1cU, 0xe8c8c31ced08d735U,
  0xe35a03e15dcd610eU, 0xd23829181dcd151aU, 0x51092e3e4815e214U, 0x44d1df5cc6f1a307U,
  0xcf17d324ed1eda0bU, 0xf3bc1d1fdcbed09eU, 0xdc4f5d9d7d42a06U, 0x3afd2de0f19ea31U,
  0x1819c2ec18e01a25U, 0x9fff1ed3b0d40dd5U, 0xc7c8c9f9fae6e3daU, 0xdae7dd1e28d1d902U,
  0xd7210017fef4e9deU, 0xedccf1d0c0fa19cdU, 0x7f2070e0b24f0e3U, 0xd704e3e4f1e82cU,
  0x250ab21412f2b517U, 0x8c03e4d3b1a6b0aaU, 0x8c9a3bbb7212ae0U, 0xd3ac15f2dbf281bfU,
  0xc9320e1c25f917daU, 0xbcdd25c4c71abf02U, 0xe518e8e6b9d801f3U, 0xdfd61a002626bbdbU,
  0xcfebe2f4242af6f7U, 0xef2310920ec19a2U, 0x12e5f6f511c6140cU, 0xeffbe6e9f511b4ebU,
  0xff3acbd03ce80ec5U, 0x42116cdeb3d023bU, 0x3c490f2933edc213U, 0x2cfed02514ecdda7U,
  0xf605e2cbbb19c7bcU, 0xf0caf01913c244a6U, 0xddf0021f02c71528U, 0xe2afd4eee7fab31dU,
  0xd937c5ba30c83b2aU, 0xaa4bd10a2312f915U, 0x332921f4fcfbf51eU, 0x16f20be209fad0ecU,
  0xbbf70ac6c2251fe0U, 0x60d23e226f1e2feU, 0xc2feeafac50cb913U, 0xe6fefcf3e8c4fa0bU,
  0xf2cbeb0e25d71901U, 0x13dced23fee31ae4U, 0xe4e7faca1a13edf6U, 0xf81432dd31fb0afaU,
  0xcef0a1adc080015U, 0x31180ffdef2cf623U, 0xf0232d0af12d002dU, 0x5f0280c144f0e26U,
  0xa1b0178111c90cfcU, 0x101d0b0b1329062aU, 0xeef6d3a4fbf8e92bU, 0x24ec190ca2c219e5U,
  0xedd3f3df4f0523ffU, 0xd18e6f4d301e7f6U, 0x1cc0badb14260ccaU, 0x1f0324091ccacc16U,
  0xeedf08051905f7e8U, 0xece748f30242181eU, 0xe2042606d72d2730U, 0xf116ff0b10fb1c0aU,
  0xddeaf6b407142525U, 0xe1210df0d350f43U, 0x60716a0f0e1f835U, 0xee0210e9f4f312f3U,
  0xdefc0f9d45291e04U, 0xf2ebe40de21c2702U, 0xeccc715fc0220e4U, 0xfae8331507e0151eU,
  0x1841da36ee1425fdU, 0xf82b530402312020U, 0xa11ea25d8361ee7U, 0xe525d80bf435fd33U,
  0x44020e3f23fa0b19U, 0x9a14c5d9e00b0422U, 0xfa3ad1ef14210e0dU, 0x2cdfd60845cad89eU,
  0x13fbefea16d5eaf4U, 0xfd1c140b35182401U, 0xec37e00ef2e82324U, 0xede1d3f203d4ec0aU,
  0x2f04fbdb13a93f20U, 0x115e5e315bf2307U, 0x3541f51a302ddce8U, 0x4ac6f0f629ccda13U,
  0x5e0cc56e1060961U, 0x97dcc2cea5add41cU, 0xdbb2fc05ef07f6b6U, 0xfcc322c62ed58fcaU,
  0x36ee0c28e9c92132U, 0xd218bcea28c7fd14U, 0xf529e8afef340efcU, 0x4ebdcfc43180bbeU,
  0x30eeee3fdfd5e3ffU, 0xe4edfa1610b70d08U, 0xec19f4def902ff04U, 0xf2b3fad706b8ace4U,
  0xb80da7e3f21bb719U, 0xbf092bbed01ffe81U, 0xe9963656b7dfdaf4U, 0xb3beee08b12eba0bU,
  0xfc25db1df60cd504U, 0x7e202dbc90ae904U, 0xe5b3012ce5f7f607U, 0x10e410010721e317U,
  0xe908cf0a2be9032eU, 0xb2f7e0e7d0060d04U, 0x34211006e120f7ebU, 0xe8fef41503f1ed0dU,
  0x28d00000105U, 0x1ef00000148U, 0xfd00000133U, 0xe3ffffff3cU,
  0x2bffffffdfU, 0x1be000000b2U, 0x2e00000001U, 0x1400000159U,
  0x7100000150U, 0xfffffffa000000d6U, 0xf400000148U, 0x4b000001b6U,
  0x12f00000155U, 0x440000014aU, 0x1da00000148U, 0x9a00000049U,
  0xf6000000f2U, 0xc800000109U, 0x3f00000136U, 0x9d000000c3U,
  0x1f500000243U, 0x15b000000bdU, 0x9dffffffecU, 0x9fffffffd4U,
  0x15ffffffe7U, 0x18400000119U, 0x1c6ffffffe8U, 0x176fffffffdU,
  0xcc0000005bU, 0x6300000042U, 0x36000000c3U, 0x1e0000006cU,
  0xf22bddf01810efedU, 0xe02418df1510ace9U, 0xe8d410120adbfd0aU, 0xd721d91ad109fc13U,
  0xf2faaf071e11da3aU, 0xf7e4071bd9dc1dcdU, 0xcdd1abf261e1915U, 0xd7fbfa2b08def4ebU,
  0x16241102ed06e4ecU, 0x110e0634e5331d46U, 0x9f91bea44fcf60fU, 0xe4ea1be3041babf8U,
  0x1eef34eafd0730efU, 0x14fa201606261dfaU, 0xe5e1cedbd40f052eU, 0x1bde08d20cc6eff8U,
  0xd608fad71be1e9fdU, 0x31ce5111910e9e0U, 0xf215f80ecd00f408U, 0x24e7da02f1fcf7c6U,
  0xdae8f4e5ea0a2f03U, 0x12cae01cf41017f0U, 0xf0bfddf1070bfbf4U, 0xf4f30cf3fffbe8ebU,
  0xd90119f214ebdd11U, 0x619f01df83b0ff8U, 0xebfcdb04af213b10U, 0xf10df2220e3ee8e8U,
  0xece1dff5000511ffU, 0xbca11eff706ea37U, 0xe0eddafce1df3cd4U, 0xd4fc3f0db9daf012U,
  0xfe0ce9110606d50bU, 0x24f4ffcce63202dcU, 0xe10ec4dbeff314f5U, 0x13dee23de101e70cU,
  0xde4d4111c272cefU, 0x130af5ead5ddedfaU, 0xdace031ef2f1d201U, 0xda29101403f0fdf0U,
  0xf227f7e3fadedb17U, 0xd92f14061801e705U, 0xeefd8e7d6f60dfbU, 0xf31722f21019180eU,
  0xed10efdfe1351e0bU, 0xfbf61ee5f614e11aU, 0xf8dffe0600041401U, 0x211400060df0f3ffU,
  0xe02e30418e602e7U, 0xa1021f30e12ebfcU, 0xcffbf206e4cf1a18U, 0x130b1336bde0ffefU,
  0x20eade153638160eU, 0xf913e504fad6faceU, 0xdde421ed1a0f170aU, 0x242e122211ff0b15U,
  0xfeea03eae610da13U, 0x28df2319ca220f2dU, 0xfc0ee4013413ebfbU, 0x3f603e70a19dadaU,
  0x22fb02eb01101afdU, 0xd0735092e09ea05U, 0x73d14b4f3e5021fU, 0x2d01f80de2eb121aU,
  0xe82af506e102e622U, 0xe403f7f2161401ecU, 0xd118efe7f7f2481aU, 0x25de03f60b22d82eU,
  0xf212f0df15fbe320U, 0xb0e04dd170c060aU, 0xf8d013f805fbfa06U, 0x22f0f81ae3eddd03U,
  0xdc08f8eceed908efU, 0x110def130f05e807U, 0x2107e2d5fd161114U, 0x230a331be12cb7ddU,
  0x28f3e3d7cd2814dcU, 0xf9d4fef4e90015eaU, 0xf2ddf1fa170c08fbU, 0xf1f31c25e3cd2319U,
  0x2fd021f03d6022dU, 0xdfdc9fff4144dc4U, 0xfde3f101f7dd1832U, 0x1ed6222cddf8f217U,
  0xfc00f1fe2005090bU, 0xfc1dd800e7071e02U, 0x13e7f7e8f911ffd1U, 0xbc073a35f300d9efU,
  0xfb05092416f12b32U, 0xf20bd208f0ee1ebeU, 0x1e31fd19d915f3e3U, 0x21b0de2ae323e00dU,
  0xe0060be4e7083af1U, 0x1df8bc05c9cd1010U, 0x27060ddc1efed3d0U, 0xd80d1efcedddd1fdU,
  0x12eded242afbdae9U, 0xec07021d1506cb14U, 0xb9d3d5190dd9ef2eU, 0xe1f9ef42c0cb2204U,
  0x10f2bc1420562afeU, 0xff03c1cff6f503eeU, 0xfbec2aeef945c7e8U, 0xef1ff1e11d0c09fcU,
  0xf71808fcfff90602U, 0xcebff08f40be4fdU, 0xd7e10bdb0a0fea12U, 0xdd32110206f7e81cU,
  0x28e906fbdffe120aU, 0xfce6f8ef00200818U, 0xeb18f3d5e41d04f1U, 0x22e1f4fee80ceb20U,
  0xc3121d08f7e107ecU, 0xcfbf619232d52f7U, 0x3282609f41f05f4U, 0x3302ef313fff725U,
  0xf6fe020cde0131e8U, 0x810e3e710281006U, 0xfed913cef7f6121eU, 0xf4fe280af8ee21ecU,
  0xee1323ea0f192d2aU, 0xec2b021c1109340aU, 0xaf1ed12122f4b1dU, 0xb011b48030a0902U,
  0x14f1f70607031c1aU, 0xe9081be8deef3030U, 0xd1200e200144907U, 0xe00f707c0f10a2fU,
  0xe162ffff4330eU, 0xe659fe0a39f715f3U, 0xf6042429e54d2d09U, 0xe0022e200d12de23U,
  0xf92740ee1aef3826U, 0x15fd1ef309172b1bU, 0x3c2d2b272dffecdfU, 0xf9f92005e8202e32U,
  0x22001629100c2811U, 0x40fe6251056ea00U, 0x3ef50e01d03b4123U, 0x17dc22430e10ff32U,
  0xf9002c0b08ea2607U, 0x2d4f700fb022327U, 0x9000bf10d075fccU, 0x430f90ae812d80fU,
  0xf1ed24ffe51ed9feU, 0xe0dc13d40bf2f406U, 0xc7e3faf809e41519U, 0xb30bfc0ad904f9e7U,
  0x100af3fde520ec1fU, 0xdfe1d5e5fa0012e0U, 0x3e8edeef4270218U, 0xe708cae81ffc19e9U,
  0xeb1710e90b16fb0eU, 0x23f9d90cf4e01724U, 0x142703f5053beaf1U, 0xa5fb33c30a01d504U,
  0x4df014cbe6e209eeU, 0xeced1e2e1733150aU, 0xea07d8d8fb22cf01U, 0x2ff0ecc8d0c60df9U,
  0xeff02017f02409f3U, 0x220d1d15082cfce5U, 0x3f1fa0af4ee24f6U, 0x292309f7d3e90528U,
  0xef1c11f9eefe7f16U, 0xe7cf141a0efb15fdU, 0xf7eddfe1d30700f5U, 0xfeeef6e2e8e35f13U,
  0xfe1c1e14001e1d0eU, 0x2d1918171311000bU, 0xeb141e22f3302a11U, 0x1e083907f3f40a27U,
  0xe70723ebf6e82e1bU, 0xfb0a25e9fd541707U, 0x1d1c03d4ea0020e3U, 0x19ef070bd8232921U,
  0x6fd0c2be6260dfaU, 0xed29112823f72e0aU, 0x13f9260b1dfe4df0U, 0x304450f8120f0917U,
  0x2f20f1eef0f2312eU, 0xe628170ff92bf30cU, 0x10232107271b1507U, 0xfa072c180ddcf921U,
  0x2b252039ff2d2415U, 0x1443afc1027ff08U, 0x3c353f1c04093621U, 0x3642272e371f2a1fU,
  0x4e29f820ee113621U, 0xfc0d1cd0170e1700U, 0xfe02f41ffc132108U, 0x362c242f1b073516U,
  0xdd1df7f0f0f7dabcU, 0xffc7f4f6bcb0b3e7U, 0xf3b6ded707c5cedeU, 0xc0f6d9defbfa1811U,
  0x803edefe502d8f5U, 0xd1dad203d8cbd6cdU, 0xe5eef0e7dcf4bbfaU, 0xcbf5f4b200f6c9ddU,
  0xee12f9d5ec11dfdaU, 0xdf51ef20afdc0feU, 0xe8c8fb190bdcdde1U, 0xd32dd3e30120ffffU,
  0x28fbf4f6f400d0baU, 0xf4fc1dcd0d04e100U, 0xef14fae1eedcd71fU, 0x15c636c3beff1309U,
  0x2a0d0bfa0cf5fddcU, 0xf0f03e7fff5e124U, 0xf01a1bfa213c0fU, 0x813f410043409f8U,
  0x2204fef10903cc0eU, 0x6fc0beee9edf7f8U, 0xf528dafcdde71320U, 0x2f092f11f0f6310eU,
  0x30e8181206e81c1dU, 0x182a1e0be8f5f70dU, 0x2845f914090d0beaU, 0xeed2ee3fef6e8f2U,
  0x1c12371ff013bc1fU, 0xf51cfaeeec0ef102U, 0xfcfb04f1f519e920U, 0x24e22915f92ddef5U,
  0x15050de9f9ec2e2aU, 0xfc450a0917f73b3bU, 0x19552fee1a352ff8U, 0x1e2b270248e9090cU,
  0x312a1905e4e84dfbU, 0x14070600fd484703U, 0xf9030934004037f5U, 0x3eff1f1606e23f11U,
  0x262a1afb1113241eU, 0xa3a0b221312231eU, 0x2f073aee222d4827U, 0x24280b132c24022cU,
  0xfb1b1d2bfce81330U, 0x391427fcf40d2c1bU, 0xfb34f8272326442fU, 0x23dc1b602bfc2103U,
  0xc5290bcfc5e4aedcU, 0xb9fbd898d6f2e0fdU, 0x6cfdcd1f7cdceeeU, 0xdcc0c1bef516e3e4U,
  0xdad5e3cee506e4d5U, 0xc8e5d5dbfbd8e2e3U, 0xd9d1baeccee7d61bU, 0xf7bf2fded8dedfbaU,
  0xb0f7f6cde7cef6deU, 0xbcf2ccef08d0f6f7U, 0xeeddc4c8e3ed0ce2U, 0xdeffc7d8ef1dbce0U,
  0xf1e4eddced1bd5f0U, 0xd901e6bcf9f5e7d6U, 0xdbe4def4d7d4d1eaU, 0x8c5f7cebce5ccbfU,
  0xe021fff0faec1520U, 0xc919f9fa08ecb6daU, 0xdff6e8ee0df649fdU, 0xd80806dbbb1307f2U,
  0xfae5ee08020ce8cfU, 0xfaf5dac1fdf911f4U, 0xe10202e6ddfdf608U, 0xdddaf2be06f808deU,
  0x1f1161213191826U, 0x19370efa1cccc7fbU, 0xc703f8f8d2fe2a13U, 0x821161dddee01efU,
  0xde8fc09e6fd07f7U, 0x4df05251df9f00fU, 0xe4e4edf20208f307U, 0xf2ce1700d513e3f5U,
  0x20eff8261be8092eU, 0x3337f30b0e0afe05U, 0xf2322ff4fd1c1c2aU, 0x9ff082f160cfb2aU,
  0xfc030c33fce00b00U, 0x1611f51d2c0c19f6U, 0x1ffcf31bf20502e0U, 0xf0e40d22f1e8fa02U,
  0x1e112106141c2e46U, 0xe91b09ef2d0d04faU, 0xee3e20f30d30000fU, 0xe8f70b011811e018U,
  0xb16050d18f31c12U, 0x21ffe40df8203907U, 0xf4ec11f81b2637d7U, 0xf4ff110aead91801U,
  0x2f1f9011fe433faU, 0xcb010a101eede6e5U, 0xc6fa0103cbfc2611U, 0xd2fb100ee4f0011dU,
  0xf811c5d5100f0237U, 0xf7f9e981f923f9d9U, 0xfcc00c9ff3550fe7U, 0xe5261f0d0402d9baU,
  0x41927f3edde1dU, 0x37e63111e1222e01U, 0xfd1424eee828d7f9U, 0xb04804ec2c220604U,
  0x5e53b010c35e0f6U, 0xbfd314e1f000212U, 0xe71111eff1f8eb35U, 0x201703f74d221f19U,
  0xdae716cc11190f17U, 0xeedffe0bf2300006U, 0x80e00e6b3320817U, 0xe70e17f81816d5eaU,
  0x4d900ecca082f12U, 0xe900fc19f80907fcU, 0xebd8d0ced7150010U, 0xdeeb091ff414cf04U,
  0x21413eeecf8f305U, 0x2305c5f8e12025b9U, 0x210c13efc02636f8U, 0xe906e9e7162510f5U,
  0xc8e73bf1f4ff0e28U, 0x1e90cfeec2f0b33U, 0xefe5da0c050f1be0U, 0xafe71e01031bd0f9U,
  0x1d17dee4d8c7ed06U, 0xf3e0f417d1f735bbU, 0xfed7e6d2e400f5ccU, 0xd8e0ebf6d123fed2U,
  0xc2d70b0aef2c05d5U, 0xf7eeeaf4e127dfceU, 0xe5aebcc2b5eef7e1U, 0xb3f10ad0ed12d2caU,
  0xf015eca7cdbea505U, 0xc82ad9fbdedce9baU, 0xe0fadeadc81b11dbU, 0xddfce7d21be5cdU,
  0xbfd4f1c8cf09fb1eU, 0xc907e9e3ee15b000U, 0xa61ac3e2bbf70eb5U, 0xb8ca0bf3e608dafcU,
  0x7e3df121bef290cU, 0xfe1fa3e004e2b9c5U, 0x2ed1d14d4f046fcU, 0x2bb8f20cef081c2cU,
  0xef27051208e7de1fU, 0xf9ccc49dfd340505U, 0xed51606260a02c0U, 0xcb18cf10192501c3U,
  0x18eb06e7fdfd0c12U, 0x28132b02f21e4202U, 0x1a1e0808090bd6cfU, 0xd62e0fe0201a06eeU,
  0xfce71705f84be011U, 0x1b110f031c411917U, 0x1628f22adc131906U, 0xdaee113a25fe3909U,
  0xf301d800e40406f7U, 0x16f2f01907fce9efU, 0xe9eb16eb1df6101fU, 0xe60ee4df032223efU,
  0xe000f7eee619dd11U, 0xfcee190217f5e017U, 0x7e6f2d6edddd709U, 0xf9010609fae603e6U,
  0x1cfae5cfff11f9efU, 0x80b211fff1c0a15U, 0x6250510fa051400U, 0xe3fe1800ff1e28f8U,
  0x1cf40a0ce53ef107U, 0x7f0e9fceb11011bU, 0xf0f5dd32e71af8edU, 0xc1ffa02e2e53914U,
  0x150209d3e6ceb3daU, 0xfdd3bf04dc1b3dd5U, 0xe5b40abccbf3ebbeU, 0x21cc04cefa3bf2c2U,
  0xbecded1f2028fbdbU, 0xc413fefedb10d7f6U, 0xf1d4d2f1e5eadbbcU, 0xd4f9e4dc20fe07f7U,
  0xee1910e816faf912U, 0xda2a1603f0ef1400U, 0xe3d424fdc92e09f9U, 0xb18d2c4ff34cbe7U,
  0x4ecffefdb17dc09U, 0xf2dce011d710db13U, 0x9f3f404f81af4b2U, 0xd2cf1bedb4e1feeaU,
  0x3604f315ec1a0a0bU, 0xcf23bbe723d1c0ccU, 0xef10f008eafa2f3cU, 0xf2adf917c2e0202eU,
  0xf1f4bffe19e5fd3aU, 0xe3dfa59cfdf939eeU, 0xe5ab27f1263b1ccfU, 0xde17cc3c0c2d21d4U,
  0xf4fe0302ec04fcfaU, 0xe2302c241ae43bd5U, 0x253f20fdde2301ecU, 0xda2f2ae73ad5f7eaU,
  0x5ef31f5df38ddfeU, 0x3126f5ffec3713d9U, 0xfcfee31be6f70bfeU, 0x5e02926f31641f6U,
  0xcaf300fb06eefe0eU, 0xce1ef527fe08301fU, 0x5ef0b1ff8f72116U, 0x230d0c2d2f2af323U,
  0x1001120dcc2110e6U, 0x9e600f212f414e3U, 0xed1405f4e7ff0617U, 0x270d23fff80b170dU,
  0xeb0902f2e40f030cU, 0xf201ebff03151b17U, 0x24e161d190c0ff8U, 0xd7f413083e141117U,
  0x1b07091beb3ae509U, 0x27fac4e805f1280bU, 0xf8f8fd14f4eefb18U, 0x15d718021c34f303U,
  0x2114f7d9b8cfcbfbU, 0xcbc6040204083b1fU, 0xf305c5e40ce2f5f2U, 0x270e03f7e7270eeaU,
  0x6dcfbfd10430ffcU, 0x923e8d9d7e2eee4U, 0xe0dbe3f304ece1e6U, 0xe7052701040ff1d3U,
  0x15090cf2daeae8e9U, 0xb706ff03fef8fd0dU, 0xf2c1f9f119102f0cU, 0x12fadc1e0326e8f6U,
  0xe5f8c5f90739042eU, 0x20605e50dffe4f0U, 0xe81eeb1ce7ebe803U, 0x14ef04eaeb1100e9U,
  0x2d17d91ef6130805U, 0xfa1895e904dae6b9U, 0xdf030a1cd1f20a2dU, 0xd78afb2dd4cd302bU,
  0xc6edd31233e6f73eU, 0xf0dedfc4141014cdU, 0xfbb63df2201a05dbU, 0xbd17d5f70235f4aaU,
  0xd813ff1af2d4fce5U, 0x34de2fcedf04e1e6U, 0x1a1f35f0d303ede6U, 0xe63408020bfa0114U,
  0xecf5f6d0e629f4e8U, 0x9fff73ddf5e18e0U, 0xe50221e81800c1U, 0xe2e9e8f0f4ea31f8U,
  0xf8e5101bf9f1d52fU, 0xf7e8d9de0c0813ccU, 0xb25eff2c1ff1908U, 0x3903ff36e5fdeef4U,
  0xcf0423ecbcf91adbU, 0xfeea02effa17f6ecU, 0xf7aa13baccf61beaU, 0xeff0e3e5dac41fe4U,
  0x240a1500041c0601U, 0xfc1bfbf31f092311U, 0xec0402f701f21a15U, 0xe00e15f5030a0df4U,
  0x10eeae5e41825ddU, 0xf1f502f52c2b122eU, 0xfdd50cf7fc061bebU, 0x4da07efee08dd27U,
  0x3500f6f6fd01daffU, 0xe8e903d5ea1913dbU, 0x11f3e9d9b6011f0bU, 0x1ee8dee42027f4e6U,
  0xebe7b61212210210U, 0xbafede804eb22e6U, 0xd6c3ca02d0de00bdU, 0xbbf2ed31e8ee29f8U,
  0x119e9ec1ef0fc0cU, 0xf01bd8ebf023fcfeU, 0xfe20f3f8bf333707U, 0x2700fa0f113ed1fdU,
  0xf4d9e6d0e318330aU, 0x12d3f107ec102c05U, 0xd7c2fee9f0f538dfU, 0xe800d6fbb6dc1007U,
  0xc02ff001d2a06e3U, 0xd6d8b2cf10d31799U, 0x1a00011ad6c3f216U, 0xeb9e241e4e6210fU,
  0xf9f5ba1e35c30c28U, 0xfdf0ddbbf6e5f4ecU, 0xf8a238d81514fbdeU, 0xcdfe05091703f2e8U,
  0xe51006f9e1fcdef4U, 0x7e34bbbdfe346f7U, 0x11f41600e6def108U, 0xe04940bff8e0f13bU,
  0x3bf4e40af25ba42eU, 0xf8d4f00afb1ef9d1U, 0xd215e819111606daU, 0xef0218f6250547e7U,
  0xd9f1fd15f5f9f6e4U, 0x1d0fec00bfdf207U, 0xf216e6ddeed0e7eaU, 0x6ea34330a1dec13U,
  0x25eff703fb202ee6U, 0xfbdd300ff506232fU, 0xf802c9bf05dfe00bU, 0xfcd6fc00d8c0160aU,
  0x609e013fefffbf9U, 0xdac1def0eb181723U, 0xe5e5df020aeef614U, 0xda080a03153bf826U,
  0x1fffccf4e71b08f3U, 0xffe5e7ed2202fff0U, 0x4f4f1f50fcdca00U, 0xeefdebc901df1ee2U,
  0x21fbea030006ecf8U, 0xde0f1ead507fe15U, 0xe5c7ccd3ede4f40cU, 0xdf05e1c0e149dcd1U,
  0x15e8c8fa0f49faeaU, 0xe710dff106e2ced9U, 0xdd02e014cffd1206U, 0x24e6e2ede9fa2322U,
  0xe0090a06f3dd08b5U, 0xf4e1e5be0de111efU, 0xf4c6fcfd01c7dae1U, 0xfc0903cdf2220d04U,
  0x4d3cdf5f718f5c7U, 0xba09ecf3f205db00U, 0xf2ebfb0bfb02cb0bU, 0x22ec0ceeec022cffU,
  0x21ee06310ef818U, 0xe9edb4e9f9ecd6c5U, 0xd0de616e7ebeb05U, 0xc9b60606ea321b13U,
  0xef6e00d02c7f5beU, 0xf0e4ddf503eb12f4U, 0x36ea2d0eefeccaf5U, 0xe01ae8eef9fdc8e8U,
  0x16e7d9f0c8f0dfd7U, 0x161c38dddb03cec2U, 0xedf9fcc2ddfd0bfcU, 0xf226e6f1e9fb2e0eU,
  0xb6e5d606d338d004U, 0xdbedb8fcd9f2dbe3U, 0xc4cad421de082bcaU, 0xdaf1fbfd32253acbU,
  0xccfeedcfdefaf7f6U, 0x27e4e904e500f9fcU, 0xdcd909e4f006d0f1U, 0xef1f02e7d435e3dfU,
  0x1ad6fbefc60df5f3U, 0x516f41f0303dfd7U, 0xe805d0c8c3dfe013U, 0x1adcf2b5c4f5132eU,
  0xfcf9d8f3f7ecdfe7U, 0xea4d6eac2f002d1U, 0xccfbc5bbf9feb10bU, 0xe2d4d6dad41e1200U,
  0x6e0cf1cd430f7b2U, 0xcee6c01312ef05b3U, 0xc2c6dae3c0c4cbf7U, 0xe4e2e6e60e2ee9e1U,
  0xf013cee5d0d4c4f1U, 0xf2cee7d9cec12402U, 0xcdbbd8d2e1bec8eeU, 0xcde2cbdcf111faeeU,
  0xf4cab7f1d6480cc4U, 0xd4efa906def7fac7U, 0xcbd6e2e7c2e1c1d9U, 0xeff6e9f2fdfb09efU,
  0xf703cedfd2eadecaU, 0xdda7e7cba9d3f8c6U, 0xddc0e7dcdbe301beU, 0xe2c0d5aee512ddd4U,
  0xdee5dadded30d8cdU, 0xd20ad7f5e5e4b8b6U, 0xc5deecf1e59fb4ecU, 0xebe8f9ccea1ad5ccU,
  0xf81d05030613f9e5U, 0xd10405185115d3caU, 0xd0e00cdbd2f51432U, 0xcdf3e82fbce3d11aU,
  0xccfda2e014b9fe36U, 0xc606d6c0dae218eaU, 0xfbe0edaf22321eceU, 0xad0ed610f0e6f0ddU,
  0x12101010f8eff855U, 0x1bb704fec11e0701U, 0xf621f70d1729bdf4U, 0x8ffe6deed12fe04U,
  0xcd043f2da1450caU, 0x2917203cdce933e5U, 0xd80617310af4f405U, 0xdfa2ae303cc1ff2U,
  0xeffd00c4faf51623U, 0xd736d312ed072c03U, 0x3719f4e9c1471501U, 0x3ee10b121e08bcefU,
  0xf6cce5dcf4ef263dU, 0x1e80504ff2125ffU, 0xf6f910150dfc15dcU, 0xdb015b1cd7cdded1U,
  0xe2f8e6feeb030a2eU, 0xd612d7021d3e009dU, 0xf84702e1a83a2af0U, 0xfb16f0220ef406c7U,
  0xd5ed33c6eeff4050U, 0x54c4f4ef0d1f2735U, 0xf9e4eb0e192628beU, 0xc7cc3400d6a1c41cU,
  0xe511f1d104ec00eaU, 0xf7f0e32e053919baU, 0x1ff824d8ca1411eeU, 0x4e61dfe002decc2U,
  0xf6fb08e9f91a34e2U, 0x2d10ef60ce5f5d0U, 0xc1dcead50ae828b0U, 0xf202ff11cdfaf308U,
  0xe7dceaeef40f00feU, 0xc4ce81b1a05c1beU, 0x102620d0da1432e5U, 0xe1f5fde72f2de8c3U,
  0xd1f317f3e00b0501U, 0x21e93312d525e7f3U, 0xc51be30cca1b23acU, 0xd3d21e20e4c6d9d5U,
  0xe0f5142b06d70a02U, 0x5ebed325e5cedfU, 0xebe42107e2ef1325U, 0xbe50015edcdf725U,
  0xec0bb518e0db0a4fU, 0xe0e9d10c0b33e3d9U, 0xec04f8ea2c4af2fcU, 0xf12cfff7ea0dfad9U,
  0x17012b180d15fec6U, 0x32e2522e0b262c01U, 0x22d14faea0cc6edU, 0xb3ff81f1722f805U,
  0x28d429d0dd3a1fc7U, 0x270a220b0141e21aU, 0xf7fed90feb0e1bf7U, 0x9021408e3dd161bU,
  0xdc0102fc041f1623U, 0xeff8ec0411fcdc21U, 0xc3f1e7f4ce12f812U, 0x320e16eee7213104U,
  0xfbd2e201f4e7f1c6U, 0xe90e1812e30feb24U, 0xf8d90993d6e40b12U, 0xf3f6fcf7183afcf5U,
  0xdcee0709150c17ffU, 0xeff4d60bf7d8a9d5U, 0x202f407eb0ce2eeU, 0xb2fb1901fc3d1beeU,
  0xf9fef219d41a1325U, 0xf1f1f5fdedfded24U, 0xeddefaeaf610f9f6U, 0xaea1cce00f908f8U,
  0xf0704c9d503f5efU, 0xfb1ddbcd021adcc4U, 0xc0ede9decaf2eaf9U, 0x1b0ddcd9d13bf2d0U,
  0xc8c5063b050ffbccU, 0xfcee21f1e022bddeU, 0xd2e9cbc5f108ccedU, 0xe6e5ddcc00ed0ee8U,
  0xe01305faeeece301U, 0xf93b2d131fbea1d8U, 0xddfd2b020e1b0bdaU, 0xcf0610e7da25deecU,
  0xf9fed8febe15c2c3U, 0xf309f5e6fa13ff02U, 0xdf16d8c107f0dbd2U, 0xdd0cf9b2d2eafd04U,
  0x1105d5072609f105U, 0xd223f302ffc991b1U, 0xf8e6e1e607fa011cU, 0xe3a3f33daadf2236U,
  0x5b400f10de84aU, 0x2c984f6f521ddU, 0xf9be201c1930f5dbU, 0xf805ca061afae8c0U,
  0xcf230f12eaef0df0U, 0xdfe1429cf0c2f23U, 0x3d0d330126f0f0f7U, 0xf03816001e02dc21U,
  0x4f31cfbe83e14deU, 0xf2eff03211d16f8U, 0x93b0a13e6f6ea16U, 0x4e17cda2bc7410bU,
  0xc1d7f7e5d81b0e09U, 0xe6dced10dc200f08U, 0xe911df06eb0c001cU, 0x39fd01260206fd1aU,
  0xfacdfa1bf3234ee0U, 0x1adad2f61edd0bdcU, 0xc116071be0d7e4ffU, 0x38d74b311e0025f4U,
  0x2714f3e8f3ea2306U, 0xde14dbedeced0d04U, 0xc1a0ff9f20af404U, 0xe2d901de3719efffU,
  0xffd1eaf8d733de01U, 0x4511dae911ee0800U, 0xcf8e2050e05fde9U, 0x24f17101d823dbf8U,
  0x2421dcc3dbe1d4aaU, 0xc9f0fac3e40d0de1U, 0xd2cdd3bbf1c7e0eaU, 0x2b030ae1d20af2c4U,
  0xdbbcc6fc0741c9d1U, 0xfd20eac3dde59dd0U, 0xeffac5d7f8c0c902U, 0xf6d427fb03d0ebe5U,
  0xfb1c02f3ccc5afc5U, 0xb9dbddf8e7dde807U, 0xf3b7de9ce2e9f1d1U, 0xf9f50ab9ce3ff0c7U,
  0xe1c8a1efd533a7f9U, 0xf6e6f1e211e7deecU, 0xf301efeceabbf4e3U, 0xf4fb1dd5f2ee39f9U,
  0x341fd01c1e0e02f0U, 0xf905c103fc16c9d7U, 0xef4f129bfe6fd43U, 0xe4aaf720eaeb1132U,
  0xd81af61735f8f32aU, 0x8dfd5940c0812b8U, 0xdd327ea13f0170bU, 0xc917f21d1b2cf2adU,
  0xc20b0a24dcede629U, 0x21c4090bf103f91dU, 0xe0351fe50924d0e5U, 0xaf201c330ae9fb27U,
  0x2eeb1deae81746f2U, 0x10b0939fd392c00U, 0x613003717f91315U, 0x17f7fe2d15e91cd1U,
  0xd0f9fff501fff123U, 0xbd09111df51912cbU, 0x25251801e60506e7U, 0x36353b291723ec0bU,
  0x401e5fae2e412f0U, 0xfbe523cff1242ffaU, 0xd5cff0ced11c1610U, 0xe60429f5d31021e7U,
  0x141e2107d8edd8ffU, 0xd30caf5eeddc32aU, 0x2918e7e2dc341d2dU, 0x43f022e81f0d23e3U,
  0xefcd2cfa0ff5fa54U, 0x34ec040f151631f5U, 0xe93306f3e415ef12U, 0xff1b24f6e405d9e3U,
  0xf6f2ee0604cbe110U, 0x108efff0f12fff6U, 0x383b16f4f4fc041eU, 0x26dffb312011fc06U,
  0xe8c8eaf5f328f540U, 0x14f2c0e3dc1afde0U, 0xf7e1ec26d9e8c3e1U, 0xd5f40441f3170cbcU,
  0xf6e4c5e1d5e6e9eeU, 0xcc1ebaf8c41434bdU, 0xe814f6d2de0802d0U, 0x17dfe0eb3932c8cbU,
  0xdff903b8fe142101U, 0x2be193b9e7f30efcU, 0xb9d90b00e9e5df9bU, 0xdce81811c0dde798U,
  0x38181a270618ec01U, 0xfa1ed5080be5dfc6U, 0xf1be1518b2e4fa42U, 0xecdcca3504df2f24U,
  0xe708d6103be507ebU, 0xffe2fbcbee04e1e3U, 0x11d625ee11f604f3U, 0xcd280a0f062712bfU,
  0xef9ff2df51c261aU, 0x11b2306eb06f204U, 0x12260bf91223e608U, 0xf142151b1ffbe81eU,
  0x27ef0fe0e142f3deU, 0x180f10ee0b2116fbU, 0xfc01fd3016edd71dU, 0xfae6fff501ed3ad2U,
  0xb3e318e602e91effU, 0xe907e5f812ff2deeU, 0x151ee8df0606f02fU, 0x3037183df629cb17U,
  0xe2bc5e7ec42cfU, 0xd3e9190901dfffe7U, 0xc18d7faf90afaeaU, 0x2ee27debbee2fe7U,
  0x10eff01c2dfb2509U, 0xdd35f0edf732631eU, 0x17f1161ed04df92bU, 0xe33450e02bf3f5f9U,
  0xe1dcf425c2330ae7U, 0x55e32c0c080210f2U, 0x14f3fe12fccef7f2U, 0x130712f317e31f17U,
  0xff0d915e5100111U, 0xf8fa1ed9202be6f9U, 0xfefbdaf3ebf3020aU, 0xfe05eef1e83014cfU,
  0x200d04d5dc181ed0U, 0xf6ee2c190ff6f61dU, 0xf1f616dff90620cfU, 0xf00a02fac7df0a32U,
  0x3215e615e91ef5dcU, 0x31afcb2dff9a8f4U, 0xd7f80a09d2180304U, 0xc08ecec3711b2U,
  0xc1f40b0fefff0728U, 0xdaeef5f7fafbcfffU, 0x7afd8f909f81bd9U, 0xe3ef1cfa051309e0U,
  0x2cfdee051c10ff09U, 0xd0d4b2ba0dd603dbU, 0xededdee9e5d7cd1aU, 0x96bedde7e6eb00e2U,
  0xf15b8f121eee8e6U, 0xd6e8c0c720dde6e5U, 0x1bbe160a2320f3e0U, 0xf4240527011fe5ceU,
  0xfcd5f0090218e3e0U, 0xf01dffdd02eaeb13U, 0xf4ead0ed2215d61cU, 0x133312def5f51f21U,
  0xf3feb901ed3ad8e4U, 0x18f7e1ededf6efe0U, 0xcde933efc8060aU, 0xfb030e084a0446cfU,
  0xd6e9fee7d30505c7U, 0xfbd21af4cefddefcU, 0xf3dce8c5fef5db1aU, 0xcefc11ef052b05f8U,
  0x20fff6ded1130207U, 0xdb06f9280e01fae6U, 0xf8ec11e1ebe3e7f3U, 0xf2bcedb4f5de0d2bU,
  0xe72bf7ffe202e6d9U, 0x24b6e4f5d0d4ff04U, 0xe8cdd4df38ce98d1U, 0xaf141ecae0401dfdU,
  0x18cacfe8f64e1ac3U, 0xbc25fdf52decaee5U, 0x6f4dafdfccbd737U, 0xeda12b6f82715f5U,
  0x10f3f5ecd303dbd4U, 0xa9c4708d7eada54U, 0xceb4cecd27c3e1deU, 0xbf2dfd82f81bedc9U,
  0x25d4b014c023ce81U, 0xd124ebd00ddaa3d1U, 0xec0ec11bdfbcbc0aU, 0x9fa00ae29fa59ffU,
  0x1ee4e2d8bae8ec91U, 0xecae0ce9c2d3b00fU, 0xb7a1bbf216d9efabU, 0xd322e885e4400bbbU,
  0xdf1d311f636a2ceU, 0xa836d10018d196f8U, 0xe609cef207bdb821U, 0x2dc6e9e901ea1515U,
  0xbed83f99c34ef0ffU, 0xcbab98f24cb6cfb8U, 0xa203f4e5d294d38dU, 0xbb1beff68ab9dec0U,
  0x4ad588cc22e727eeU, 0x9e9e201ace0636c3U, 0x48bd5d529d131f29U, 0x8eb90d1639e940e5U,
  0x97f1ed0a08d69b38U, 0x295256eb5ac8aeacU, 0xce05132dc8fad8d1U, 0xb7d74b2cd9ceb710U,
  0xa415234da397a724U, 0xfb2c460ec7413db8U, 0xa717fe290c2ebe34U, 0x229f2057a0cf521dU,
  0xe1fb18cd37f027e2U, 0x5ebf8697c754d5fcU, 0xb406f7c5c298e6a0U, 0xdb17ed5e27c68c52U,
  0x36c63fba88eae825U, 0x99c3c4570209a74aU, 0x55b43b2af3c88c91U, 0x551cfa35eab78995U,
  0x91952cc44e1059bcU, 0x87ae29b9c3fc16c8U, 0xffd435d1a70c9e3dU, 0x62e109e632ed9ce0U,
  0x269643c31e1254f1U, 0xf351f104f24ea715U, 0x5c30ec27883b3dd2U, 0x5a9beaccfbaa3d6U,
  0x5d3fe6a240f1951bU, 0x7388c92205fb53aU, 0x60d6c238bfbbd30bU, 0xb4f5bf2e1d31f21aU,
  0xe98833d7cde5b9dbU, 0xff41530726a4ca84U, 0xe98acb48e5a8edc9U, 0xb0c9bca714269cebU,
  0xfcc9a12e2ce9797U, 0x23c8db44edd7e7cbU, 0xcd1b5f52b6ec314bU, 0x52382ad50b321230U,
  0xdc9344fb0685cfacU, 0x41293cad1ae0a5b7U, 0xbfc7def3b12f8724U, 0xc2f2b1d1331a1a08U,
  0xece636af47bbbb08U, 0xf6cda8543b2445ceU, 0xbad5c3bfbb95004eU, 0x3d58c69337f21289U,
  0x9e39acda49a915dcU, 0xd3ca43cf0e5923dfU, 0xf2dd2f3e09600ae3U, 0x99d8d697222b2501U,
  0x34164b5a89bf0ea2U, 0xea13a3409dc2dd52U, 0x2a16deb34eef954eU, 0xf8f01a26b9bcbdfcU,
  0xa4d20c9ec0d2e99bU, 0xb6b5aec0f3bcbe42U, 0x86a01c3de9beb657U, 0x26f94b482fc4a9d5U,
  0xd6fefbfa131a8f93U, 0xaa5b20dc251256afU, 0xc38fb1005bda2cb2U, 0xd50dead7518f93ebU,
  0x523d241fb5590514U, 0xd1e229d751ae0537U, 0x60bbb7032c5e9990U, 0xfc425187e757bcb9U,
  0xe001e8c45ea797eaU, 0x39ca58a8b5961544U, 0xc7a95b2abe512e27U, 0x1c98372c4f43219dU,
  0x21c313523ad4a69cU, 0x80a405510353118U, 0xb198de1288e352c2U, 0xfe2a98d2f2071deaU,
  0x1d787c73ed89bfeU, 0x5d92b0d032fa2df5U, 0xe219a32ea2f8b387U, 0x63e358522fd5d754U,
  0x25c3b01ac6224befU, 0x288da8c6eff8ebd6U, 0xab372837974318a1U, 0x9528ff1f9645279aU,
  0xa63c9ddb5e35413dU, 0x934bcf99d02b9caeU, 0x9d579b94a4d90921U, 0x8aaa010abfd13ac7U,
  0xf616ba0dfd0fe3edU, 0xb35754249a240d1dU, 0xda421fc606955c19U, 0x46f9e9e8ba002dffU,
  0xb15107d221009f45U, 0x402c99ba409b8a33U, 0x1d454526d9f816e6U, 0xa8bccd5687e1d04dU,
  0x101dccdcf056bd16U, 0xb8de438a0eb85c54U, 0x13b189fca2f229f9U, 0x4bc4e69720a2c4b3U,
  0x1294972f47495a08U, 0x461545a4a49fb842U, 0xf5f88b055648b217U, 0xa43b97874e18ccbaU,
  0xa6245bb8f58f2335U, 0x4c198e4e9720e5b8U, 0x8f0b2737b012c4aaU, 0x3fb193271731c602U,
  0x29bfb573ac71951U, 0xdc1f548c5adbbdbdU, 0x5aca495d551dc63dU, 0x9fabdaf1b930ed26U,
  0x38c23a225bcdde11U, 0x4c223bf1f605f6f4U, 0x15b708d71cdd342eU, 0xabd6f3f6910d5808U,
  0xb2e4cdcb95ffa2d3U, 0xbce34f1a8609cb4aU, 0x1bf8064d1cccc8f9U, 0xf894c4afa92ca02eU,
  0x440d48e0311c15dcU, 0xcd36b68c20d78924U, 0x3bfaeba12d34153fU, 0x194f233902523894U,
  0xb2eebd8791ffa7bfU, 0xb63b009057c0f99aU, 0x46b6575dabb5c93fU, 0x1234f9e7f9faffc6U,
  0xc94043cfeaf89fccU, 0xf21d92d535a0124eU, 0x37cbc24bda933b8cU, 0xc13bdb0cfb2fa813U,
  0x5e90f74f012760d2U, 0xdff049a392b10b92U, 0x9d0fadf11a17a68bU, 0x62521d12b7435193U,
  0xe450bdd8a9be070bU, 0xbdda50efeb11fecfU, 0x9a31ff5eafee435cU, 0x9556c7dfc141d502U,
  0xa5fc0fa995d1d643U, 0xc3b40e36fba7545bU, 0xf7f827e0cb5bb8ecU, 0x9c548aea06daf2edU,
  0xe38720151b065ae2U, 0x98d725d400be0ac1U, 0x4f0ff64d9ba6ff05U, 0xd6e359fbb6a1d028U,
  0xfc56eb578cb98a4eU, 0x4c5eed37290b85caU, 0x3aa63549049718bbU, 0x17ab2942b9bdd50fU,
  0xc18521afebb1e053U, 0xc58630dcf0bbd88eU, 0x8f05a3bf23161aadU, 0x3262745463b4387U,
  0xf4315e86d5991704U, 0x5987ce3ddd200742U, 0x8541d5c6beb9be33U, 0x274ae3ceaed022d2U,
  0xb6e436455b4c269eU, 0xac4a1cb6efea9f8aU, 0xd50f8fe921ce3ac5U, 0x2f18a221f6c1bf59U,
  0x93b71b13c1de0ac1U, 0x3b1a163c55b45c0dU, 0x8f0644efa38dfb1cU, 0x1ec8d34839dfccd0U,
  0x310abae4f8bdcb4aU, 0x5f15ca97e08d3a84U, 0x52519c98853254e7U, 0xdb564c00d8ab20caU,
  0x8c0bc73a03ed0ecdU, 0xb2e05945dc93b807U, 0xaee3dfc88a27e051U, 0x904482ffde9a948U,
  0x254594c958b59003U, 0x192b07cc2b0e530cU, 0x3800ce5509f12543U, 0x5ec8eb1f442c1ec1U,
  0x10ec5c3a05a9a88cU, 0xbdf31445edd49f05U, 0x1a52eec393025dc9U, 0xc72f15f10602f8c7U,
  0xb78c3ab006f745f7U, 0xdbc7cc305aa0e410U, 0x579f3daa5d1fb34bU, 0xeebbed0ad21cab44U,
  0xc653d322fd23a0e6U, 0xd8fadfff104a9c03U, 0x3857e597e1f308f4U, 0xec868af51f9b50e6U,
  0x424f42593145b145U, 0xf7bddbfc4bb056ffU, 0x972b4fea2d90a427U, 0xe02b3cdbe3b2cb01U,
  0x512f92948595549fU, 0x49d214a79ee02392U, 0x5540c095eff8c3e2U, 0x2e29978feb0b11c5U,
  0xdc0f86bbba461c13U, 0x44be9308e4d1aec0U, 0xd5f0892f18308be3U, 0x8fe419c717229ba2U,
  0x82101dab569444faU, 0x568ccc564c2bd4d8U, 0x9336ab9e8c45af07U, 0xf83a2cb858aad09dU,
  0x459fd9e31bdebec1U, 0x4204f80a18af5413U, 0xd3d23cfc84b69548U, 0x51404f5ac9f6a8ebU,
  0xe7e4b7f758b4dd21U, 0xceb0aa4b9c4d28f5U, 0xb44cd3242fd7dceaU, 0x5b16d505c993abc1U,
  0x54bf184dd8effd35U, 0xa3aeb6433b93920bU, 0xf1c645c8e04409f2U, 0x89b308d2e0c1481fU,
  0xfce1f22354d328f6U, 0x3719f2d7501c96fdU, 0x258414f9f843a834U, 0xc5ae8e18c6f8b847U,
  0x8fd3e1fe29604e30U, 0x1e0a55fc4a274634U, 0x95af5b06150338a4U, 0x9eaaee0f159436d4U,
  0x1bd8fcd10889b422U, 0xc7c21eb3dcd42cbcU, 0xc52cd4b4faae37e6U, 0x1af78a9c35c504a0U,
  0xc41ddff95330320dU, 0x54b9e965dab9c10U, 0xc8e58d4e86c7b858U, 0x3653b3b5b3d32028U,
  0xae06590a8ed386d8U, 0xb465a558f3c8a484U, 0x8ea726a0b7fd10e5U, 0x180c4fd64ba1ac01U,
  0x1791a70ecf1bba32U, 0x2f9651e0475315e2U, 0xc7468133f451c4afU, 0xfadf7c4cc02b843U,
  0x5801ff91ed8ef207U, 0xc4c340e0b8ce0dceU, 0xcaef5584a78cca8dU, 0x518726fbf7eaaefcU,
  0xcd9846a2c21105ceU, 0x181d161dd14613e8U, 0xb1aee8b6eb222a2fU, 0xccdc3cedf04de544U,
  0x1a300db2dc61712U, 0x11eff920414568bdU, 0xd08941ce491c3bc8U, 0x40469cef0e390232U,
  0xefb1c29eb90fc9bdU, 0xe353374adee52b21U, 0xbc8fbd49b72c9710U, 0x4f35bdf51beca7e5U,
  0xd9f68dd8cf084185U, 0xdafcf8203f53ddf6U, 0x9940b4fcf288844dU, 0xee4b5aa7532c2e24U,
  0xce2e40039b5ca8c2U, 0x941ed1d41d2bf2cbU, 0x4813203e3f0d4400U, 0x170edfd631e3bd4dU,
  0xf800c98447472ee1U, 0x520202550540fe4cU, 0x4f391999d7ed9a17U, 0x171a952debf51850U,
  0x4e4e009c1ac0be24U, 0x2d2fa4c708a49123U, 0x44e6ab3245ece810U, 0x27acfbbead4b15bdU,
  0x1c86b6d5df5853a4U, 0xe900f5c64242dc23U, 0x4e395a5508543aa8U, 0x45ba585bd0498ecU,
  0xafec3ee120c61798U, 0x1cf1d9a32cdf0c1fU, 0xc4bfba4041101d3bU, 0x204b0e8f0235af4dU,
  0xf72c0908011beedfU, 0x420df1e5d9110c18U, 0xd20806fde3080debU, 0x221c08f3ec1911fdU,
  0x501f32ff30c0900U, 0x17f5123223fbf2f5U, 0x1f7e3d4e3071e19U, 0x3000dbf4fb3324e1U,
  0xf2240c2028dd1b22U, 0xfd36e6ef0dee16f1U, 0xcf3160608072d0fU, 0xc2104eceb3335faU,
  0xe4eddef3d01edf0eU, 0xf3f6dbdde22dfafbU, 0xf708f2cde3fd2903U, 0xe0fbebeeee0710d5U,
  0xc5281b1ce90f1ae0U, 0x1fcd24e0dffe0622U, 0xc4dff6f122e2f90eU, 0x12e07cfee4af7daU,
  0x10e9eefdf726c0c0U, 0xe1212414f01408ebU, 0xebdaf1c108e5e611U, 0x2ffd17e00ace1befU,
  0x101d2dfb012b20f6U, 0x1b0024f1ea062620U, 0xe0f3f91f0af81209U, 0x2211ddf94af9deU,
  0x2ce90df8ec2515ffU, 0x140dfbfcf9081711U, 0x22ecf0f607fcf21fU, 0xf8f50b19f5151b21U,
  0xd2e1b03e9f613e3U, 0xbb1dbd3c90713d1U, 0xb702fee208fee1f7U, 0x29e0e4f3ed471fcdU,
  0xfd15f102032604b4U, 0xfedbe412f7e2f101U, 0xfded071a09d8cd10U, 0xd823d1d3f42efcebU,
  0x241af3e0fb08edefU, 0xff0614e7dae21109U, 0xb2c40004fceb0105U, 0xfd120cb6b11f1102U,
  0xff06f405141ddeb5U, 0xbcf203e218f3c2ffU, 0x5dce314e2e10a10U, 0xf4f5dfed22161cd3U,
  0xfae102d7fcddeddcU, 0xd8f8fa00f4df06f1U, 0xfe16f0102e0dd6eaU, 0xfe06eeeb1a0910f5U,
  0x6e7f1e3e12a1106U, 0xdcf002c5ddee1beaU, 0xd225d60bffebe115U, 0x2ee333804d91ad3U,
  0xee815ec23e3e630U, 0xda24e7dcf8d1d4eeU, 0xf93df4fce312e9ddU, 0x1bee22a152d07f9U,
  0xdff511f7f035df4bU, 0x1a0bd00aea323322U, 0xf7f9e04ffb19d9dbU, 0xf30f0a1df8ebeef4U,
  0x11deffffe2f61306U, 0xfcf9e2fffcf82bf9U, 0x13bf706090a2709U, 0x9daed2019fb0d04U,
  0xc8101315ff0701f0U, 0xfb1adec8d30d1703U, 0x121308221f020dd5U, 0xf7ed1914e6d1fae3U,
  0x7f2f5ea10fcfc0dU, 0xf1f6f01dcaf546faU, 0xec1fdbe610f3c8e4U, 0x3807f9ef1a17f4e8U,
  0x1916ebd6ff132bd7U, 0xe2d4deb40c0405f2U, 0x14eb15f7fae4e504U, 0xd10700f711f2dff0U,
  0x2612efd5d2e4d7bdU, 0xe3b7e8bdd0aa3402U, 0xb7d4dbc2fbc3e4f3U, 0x32ccc3a5d631e6dbU,
  0xe4d8bc0af418bcb0U, 0xcdfde9980debc5f1U, 0xf5d4fbdeefaacde0U, 0xd50ae7b7e70910cbU,
  0x10cdbf8b8d90ab5U, 0xcad5dea2b9a011eeU, 0xbcbaccc5dfcde9b0U, 0xdee3cbc5af14f3d0U,
  0xe7e8a30cf750e4adU, 0xc9d5d7b50cc3b4deU, 0xffb7f9e6d2b2a4ecU, 0xe8e1f6ce1403d7bdU,
  0xd7f4d6040818ece7U, 0xf30811eee91313fdU, 0xa0118d2c2252ee8U, 0xea2d09f81d28faffU,
  0x3e1eaedd708fc28U, 0xec7f9f21404f2caU, 0xe01ae7faf3ee1315U, 0xd0ed40f9ee0108fbU,
  0xfe061315121d223aU, 0xfa3ae3d342e3d6d1U, 0x1af02d32fd281cf8U, 0xf8ebf704ef1d1900U,
  0xeb1fd709d0f59845U, 0x1cd6eadc1e0d1e1dU, 0x24e0fde5fe3d07e7U, 0xf4f1042116e5be1fU,
  0x140225090913381eU, 0x60018e80ce90f05U, 0x1c17f515fb322715U, 0xfc1f08f9ed22f606U,
  0xfafb0220ea0cf32bU, 0x4fa0116f60422f7U, 0xfbd8f0f112ef2ff8U, 0xa05d8f5ff242e1aU,
  0x12281705df14f0f1U, 0x6dce0f1e50914fbU, 0xcefce5e20905d20bU, 0x8c616fdfa0a0cedU,
  0x24e9081dfa16f615U, 0xfcd718d9fb12e3fbU, 0xf0c3f0f9e7ceeef1U, 0x117f001fafc00dbU,
  0x20f6fbf6ddd1f6feU, 0xe9fcbcead7150ddeU, 0xcac4cfe3e8e008e4U, 0x4eddee1d336d4f6U,
  0xf2f2e9e1f93ec5d9U, 0xe8c1e6b0d7ccdce5U, 0xe2c6fafef2c1d4b0U, 0xe3f503110f111cccU,
  0x220dc9d9b6dadfecU, 0xcddbe3afbadb2cd5U, 0xb7b7b1c4abdafbcfU, 0xba1debaef09f6f6U,
  0xddc1caf8d0170aeeU, 0xc29fb7e0f4e7eae6U, 0xe591e4dcddc2b3d5U, 0xcdec0cefcc1cdab4U,
  0xeceb1d0fef0d0600U, 0x7200b430a2a0222U, 0x1025e6dd33292a0aU, 0x1523eee60b40f4dfU,
  0x19cee603fe3ee5fbU, 0x5003222030ffff2U, 0x145f335e1100555U, 0x48d8061cf40819f2U,
  0xb23fa1f3e0bff41U, 0xe545de202deb25d3U, 0x170a060e08141abfU, 0x32e520020f08220bU,
  0x42516dbea10e33bU, 0x240acfb9060f2afeU, 0x20ef220df22c0b22U, 0x190d302bfa0bf5ebU,
  0x15fd191e20e30c03U, 0xf5230606f2c7ecf7U, 0xf30f922fb1dfbd7U, 0xde110627e1232324U,
  0xfe0e112d141fc232U, 0xea2e010213430b02U, 0x261a2033e523d13bU, 0x15e710222afe11faU,
  0xf3f60a0016eced23U, 0x131afc0c21ea22e1U, 0x1b2b13f0f71613e5U, 0xf3ed1f180df7f9e6U,
  0x11100011f6080f0cU, 0x33f40c0218051809U, 0x10eeea0ae7180302U, 0x1ede26270ff9f3deU,
  0x13f209f802f0f508U, 0xea1eb513f10d1fceU, 0xfe2411dcd40cf2f0U, 0x36d4d223f7ece1fbU,
  0xc1e61b08011a1ce3U, 0xefbfe8d900d1ff15U, 0x5c61c071903d6cbU, 0xb4fe2618e302ef02U,
  0x1125c3ffdcd4d30aU, 0xc71ea005cf11359bU, 0xd05dde09906e2e6U, 0x12ceeffb1bf4d30aU,
  0xaec9f3e9ede721cdU, 0xe4becbacecfcf0dcU, 0xfbe303cdd7b7f996U, 0xa3020ff2e9dabdd5U,
  0xdd0ce60bdf1bf0e8U, 0x10f51b26f0330a13U, 0x11fcfbe11efaf2f4U, 0xe4371019e047e307U,
  0xce28fd0e221314U, 0xe01420ec17f9d0f0U, 0xd038cfedce221030U, 0x1808dfff11281317U,
  0xe20df10b0102f71fU, 0xf049c7f707dcf5fcU, 0x24fb002b18181fdfU, 0x2bccfc2b2e1407dbU,
  0xd9f211e6d4f4236fU, 0x1515ceed09501ed2U, 0x60107f505122214U, 0xffd0d2808f7e40eU,
  0xdf08270232e13201U, 0xa18140a11d63dfcU, 0x1a1f2107fb1e07d8U, 0xdff8130719fdfb04U,
  0x22faf6f0fb0aee18U, 0x24f9090ce517f4f2U, 0x1f71e37ebfe0a15U, 0x1307ff2122fcfd17U,
  0xeef912fafe0c0625U, 0x2201c041218dceaU, 0xc3fbf60c0aeae8f8U, 0xf0290409b90ef72aU,
  0x4fd0c0a1204f7beU, 0xf3f71c0217061b00U, 0x80719d4f2eff3e7U, 0xefe207f4f3050cf0U,
  0x6f729f7dbf22523U, 0xe804fc0719e7dcd6U, 0xebf91afaf4eb31ecU, 0xe6ee2b2cf2d8ea20U,
  0x11f9ec15090002f3U, 0xdfec02e5d9241411U, 0x1d020fc8f61313c8U, 0xe3fbc81ee9edfe24U,
  0xd12f214ff06f513U, 0xfd1cf3f20aeaeedfU, 0xfe2314f3bc0f3e1aU, 0xfbcafc30eb05d3fbU,
  0xbcf01b1fecdafdceU, 0x21c013f40c380c24U, 0xe2cf0fa113fb1da5U, 0xe40bed34fe100adaU,
  0xc41109e8bef6d3faU, 0x19dd00f61110173bU, 0xb495b5c208ac40deU, 0xfcdc080cb42bc6d9U,
  0xf0cbdbd7e72628deU, 0xa10a08fd0ac3d8c9U, 0xb31df316ddf64438U, 0x12eedfe3e9182606U,
  0xf0dfd0ffce9f218U, 0xe73edeed09b481dbU, 0xe72d08180236e01bU, 0xd9ece7f3ec1afcecU,
  0xbd0624e7d1d8b812U, 0x2303f3de11031ee0U, 0xfe15e1fdef39c00eU, 0xdce404dbf200feedU,
  0xd4230ff905e1151cU, 0xf521fc2aededf2fcU, 0xc910ebfacbf2f3dfU, 0xc0f9201cef00edf5U,
  0xbf293dd81102fed2U, 0xce3cc1be30a320fU, 0xf205fef21e01d4e3U, 0xc306f9e910f404e1U,
  0xf41813161f15140dU, 0xd361cf22af3f2f0U, 0xf3d81b1ad71c0928U, 0xe8f9383429e6d631U,
  0xcdfb080007f7ecebU, 0x19e112151c01eb2dU, 0xc1314ca1c31e8f0U, 0xfa1bf937d8b31e08U,
  0xfeef182a0a1b4124U, 0xe754e9272a22f0ddU, 0x3a242720d3304115U, 0x2fe4426b37fef82fU,
  0xa0528052903d13bU, 0x200407c9f00b1d20U, 0x2f0543f13b240bdcU, 0xee19fa31f0bf13e2U,
  0xe9fbfb3418310f13U, 0xeb39d61420ef1ff5U, 0xd851220fdaf0f244U, 0xdff5406733dae821U,
  0xe343350002e7e1e0U, 0x1e0deff2ef3e284dU, 0x330145a6383df1c5U, 0xd3382a33ed0a0e07U,
  0x2114340606113519U, 0xe02de9da0bba1222U, 0x1c2ffb271af8b2dfU, 0x41518f11c183b30U,
  0x101fda20d5ed08f1U, 0x3b28daf22422db0dU, 0x215813f9f9f3fb28U, 0x41dc28e92ee11d42U,
  0x1609f8e194ef08feU, 0xf6ca16d700bff1e6U, 0xad92b9121981ed11U, 0x51931eecb29201fU,
  0xecbdc836162d2b9bU, 0xb7fee5c6eaf59222U, 0x8def820dfb8b3d8U, 0xcf15f02f211a4be0U,
  0xf5e0e5ead0de01efU, 0xa4f6d4db00f121b8U, 0xdc0e9e900b2f8ddU, 0x23dc06242e21c228U,
  0xa0e9c5d3e4321c01U, 0xd6e6f2e71124d1e1U, 0xaae5cfe9eefeb5e2U, 0xd7b7f031c81ccabbU,
  0xc80127e420d20d3aU, 0x9b2814ea13d002e5U, 0xe113ae7d9123ff1U, 0x5f30e23223bca0fU,
  0xaf1f13aed60a1b11U, 0xe50ed9addf29f502U, 0xeacee026e737d7d0U, 0xdaf1f519b920f1f2U,
  0x48d4f32de80d392bU, 0xf516c4f900d416ecU, 0x4b0a14f8ddff3408U, 0x22cc3327fb04e20cU,
  0xe0f321e616ed0803U, 0x21ecf5c2f60e1af8U, 0x20e41404220cfaf8U, 0xc2feea19fb0401d2U,
  0x2040c2bfee01842U, 0xd9fdb6fffada2cddU, 0xeaec0c01e900fb23U, 0x3be002470f2b011aU,
  0xea1ceb0210fb1829U, 0x8ce06d409163732U, 0x15baf5feebe6d7f0U, 0xf6fc022ccce1c902U,
  0xdf1c16e216f6d4e2U, 0x342e5f31ded25ceU, 0xe8161e04b1fcb6f0U, 0x4d029d8e506fc0bU,
  0xb9f1fddbefcceafcU, 0xf1e70ffbda1437c1U, 0xfbe5052afa17cbecU, 0xde052bdedbe1eff3U,
  0x121ffaf1c81dfe07U, 0xa703cdd4f9fae9a9U, 0x9edad70fbac520d0U, 0x3ee806eddd13b0e5U,
  0xbce1e6b5e2e1038fU, 0xcc97ecc8bb05f8faU, 0xd6ade0aa0dc307a3U, 0xc2ce1cbfa8dbdce4U,
  0xd908fadbd2d8dc18U, 0x26e8060beebf97U, 0xe3132ddfcaf0f0e3U, 0xeadffd2015fcd5f1U,
  0xb0ef05fae6310723U, 0xd4c002fcc11c19e9U, 0xdfa6e2e0d507dab9U, 0x8eac0616ddeba0d2U,
  0xfd0e3217f51102deU, 0xf1fb041629d80ad3U, 0xcedb1115e72036f1U, 0x16e348f1ffefad0dU,
  0xc50724e5f62ce4daU, 0xde0923e00e030b0bU, 0x13f1e2d2e91affe9U, 0xac6e7d7c403dddeU,
  0x27db09e907155706U, 0x2a3c0006f9d1f1fcU, 0xc05eb16f92feee2U, 0xf3e247dde84010f5U,
  0x71f3112ce19e215U, 0xf9f020fc0841280dU, 0x14ed0ceef60204d0U, 0xf3dbf7edc9091e00U,
  0x4400501ff8010c02U, 0x3649ea15f1dcfac6U, 0xc070c1af82f01d7U, 0x6e570fb0a062d1dU,
  0xb822f6fc1509300eU, 0xd6d81eeb3734151bU, 0x106f6c11628f4bcU, 0xd2d7043aec0c1c23U,
  0xd80125ec3707d8a8U, 0x490827cbeaecd42cU, 0x52c2ad0390ee0c7U, 0xe81e25d0433716e6U,
  0xf10ed0fc8f3d0f8U, 0xfb2b0d34310c19ceU, 0xd35d01cd40e0c2dU, 0xf4f358e1171ce308U,
  0xf8031a11caf7cb03U, 0xe4bce20befcefaf7U, 0xb5b6f6f0f0bd14d0U, 0xe0b2131e501f1cbU,
  0xcdc0d5c4ee26e6c1U, 0xdde4fae5dfb0a0daU, 0xbaa2dfdedb8c1406U, 0xcde330b5b71107d1U,
  0xb51b1ad8e1eb0112U, 0xf02cf1dcfcc987d6U, 0x12d61dffe7de12ccU, 0x4f8222dfc3bdb03U,
  0xffdfd4d8d529f3fcU, 0xd4f2e9ece1fcf20aU, 0xf626cad8120ed6ebU, 0xe4e50af60909ddfaU,
  0x270e2ce70c020bedU, 0xfd071f3b0cd1440eU, 0x3c02ff0a1ded1ffeU, 0xcf13bf957fe17faU,
  0xcfd705ecd0172006U, 0xe00cefeb11133a00U, 0xf91ad9f3e314eae9U, 0xeddd682218e6fccbU,
  0xf128150cf5f900fdU, 0x1152d440fca48faU, 0x1a0517df07332bcfU, 0x130a160818f5e62eU,
  0x3f50a24d42efc05U, 0xf601fdee134bff0fU, 0x702fe1ac5e2d445U, 0x3cb93e3fdd1f1117U,
  0x1c1f2cf10304210cU, 0x11252de2fbf9fef6U, 0x332d31f52d0b2af2U, 0x2426402e2431ea1aU,
  0x33e131f9fd28f901U, 0xf511ecff1f260c21U, 0xe151421faf22602U, 0x11ffdb3dfc0403ffU,
  0x5120f1ee8f70b08U, 0x4fe23243e80cdff7U, 0xa4d11d13844bcddU, 0xf05111ee8f83e04U,
  0x1d0a24cd1ef5d820U, 0x18242d29311a3fd5U, 0x220f0f9f5f50ef9U, 0xed14c5fedb0f09ccU,
  0xd5eac6e0b501f95dU, 0xdba22e1acb215703U, 0xe603d9dccda6600eU, 0x23cf4831d3edb1ebU,
  0xbbbbdbe1fef02fbdU, 0xfc10cce4d0dec3dfU, 0xeddff2b4e8a62c0eU, 0xd1f417c8ea17eddcU,
  0xf218ebf7fd1bf444U, 0xe91efbf1df0ce0d2U, 0x10de040ce4043c1dU, 0x35cc40543303bbf9U,
  0xe4df0f12f407ebd8U, 0xf6cfd4ed0138f51fU, 0x1f21dcc1e71f1ed1U, 0xfbd64c1dbf25d6f0U,
  0x1316241aed07eb1eU, 0xe02cdc2324f2dfc6U, 0x111e0724e90a0404U, 0xdbeb0b0127ece130U,
  0xf5f53d2802eee5f3U, 0x1fe904fe103e2c0eU, 0xfc061905d9f72bcaU, 0xd5030d36d2fce2f9U,
  0x11f507350ffdf9e1U, 0x1e24061b0ec516dbU, 0xf404ef1fede52706U, 0x2d00322404f3112dU,
  0x2903f5ded7e5fae5U, 0x1befec110d101d02U, 0x26cdf0b7e3f6180bU, 0xed06e217b8e8dae2U,
  0x6f12e06d9eb1f1dU, 0x2919f5f2eafb1ffcU, 0x141eff15d8022217U, 0x2f09392025121332U,
  0xdf2217f7e22222d7U, 0x512230b0d131107U, 0xfec1ed6ee13dc11U, 0xf7d0dbe9d6dacefbU,
  0x11f401f309efd3deU, 0x1be2e3e6f7070647U, 0x113611d7380bd4f2U, 0xd61d110b2a3624efU,
  0xf60cd7dc24d703f8U, 0xe23534231ff41108U, 0xd720ef601ce9ca30U, 0x3c0cf8ff0e310809U,
  0xd021efe8bad6c214U, 0xd9c30626f21c38d5U, 0xf0a6b9f1ddf82c12U, 0x3830035cd91cb1f3U,
  0x18b0e8cbe4132e9fU, 0xc8e8d7d60fcec2f2U, 0xe5072aed1aa2720fU, 0xe71747da001a0504U,
  0xbde61cf8f708fef9U, 0xddd4070ff3ced6f0U, 0xf42ee9092ef7U, 0x4f07013d170afe34U,
  0xf7ffe5ed05ddf302U, 0x25dfd6cff948ebdeU, 0xfe041ae6d12717e6U, 0xe40bca0cdb0af5eeU,
  0x6193201fcf53041U, 0x131ae8102e14b9ffU, 0xfb1926f9e0480214U, 0xfb1b3525ec172f22U,
  0xe1de0111e2e7f5e5U, 0x29020d14052d03fcU, 0x202bfd022e28dcf9U, 0xeddb06f609f71925U,
  0x1f2b11ff1f1c1c0cU, 0xf9fc11f62bf7dbc7U, 0xf2b0de0203e20201U, 0xe2f04b30bbef232dU,
  0xede325f4e1d6f715U, 0xf4cd0a47d725f825U, 0x1f40fe9e12d27cbU, 0xd6efe2ebe7fad5e9U,
  0xeae820360c0b3a29U, 0x28df041124e5d3f9U, 0x6f82127fc09e329U, 0xf6dd3a191612e6fbU,
  0xbeb0c1411e6f027U, 0xfce51809f72bf528U, 0xf2ce1c112b19f00cU, 0xe41cfbf0cc3fdb1eU,
  0xfbede4011a11d312U, 0x39f815ec1a2cf604U, 0x2ed5e7fd1606b6f9U, 0xbe0234e0195527efU,
  0xb18ffee1ed7df26U, 0xd270d5cf03ede01U, 0xfc56163cd3ea3c4dU, 0x350cee2efafcec28U,
  0xe0efd4e506dce420U, 0xe5ddd328e62d51f3U, 0xd2f31e2de20be919U, 0x700d2452f2d9c3feU,
  0xc4e4e7f2e3fe18b0U, 0xfbd7fc17d31de4caU, 0xe8d431abf0d7481dU, 0x1217cda5d71028ddU,
  0xfc09db092205e630U, 0x33f4e3230a19f6fdU, 0x46f9151bff010826U, 0xd3f81f142e21ed2cU,
  0xedcb52f70926e6ffU, 0xcf9313af83ad004U, 0xc7fbff19000243faU, 0xe4f613fd13d839faU,
  0xdf1df8f20521f80dU, 0xc8fb103b2ed41405U, 0x351344ebe916a40dU, 0xf0e132f715eeee39U,
  0xd22605d1e9d2f117U, 0x2b15faf9f041e1d5U, 0xdc33fcb61509c1d7U, 0x17e511c8d3e4ffe7U,
  0xf7280fe7da0afebdU, 0xf5d50a2f16eb062eU, 0xf29e06defafbd6d1U, 0xb40312eb0f13081bU,
  0x721d300cc0ed0c4U, 0xfe1a391cf837bae8U, 0x1502d6bf0a19db12U, 0x61626bedccee8f7U,
  0xebfe290cf937efc4U, 0xfe01481817adec3dU, 0xcfa228231efb14b6U, 0xbc2420b3e611f9ceU,
  0x4bfcc9c3d7fdbfd0U, 0xb4fd3ffa0af88b15U, 0x13d2f6e6eed71bU, 0x40021c0eaf3e630U,
  0x41d5849a14eb1eU, 0xa7adbd9003e890b1U, 0xdfcb8ad3bbe3223fU, 0xc1de2baa202ccf3U,
  0x1e13b616c61c001cU, 0x1d0086c7ecbae908U, 0xe2aa9411c630f0baU, 0xeeb610fbfe1ffdb0U,
  0x47400c9a2f15d6fcU, 0xe60f26b3e5f6e399U, 0x17d02b1da6e5ce03U, 0xdf9af80dcddf2abeU,
  0xdfcc2b2bbcf93e5dU, 0x1fac1ec5de9510e1U, 0xfdedf7b808ee2e96U, 0x2334cdb4dcb1edf0U,
  0xd248afeac60e1a12U, 0xaa2626c7d00ba5efU, 0xe0012bc00442f8d6U, 0x21adc5a7d11e1bffU,
  0xd131e514d69aefe1U, 0x692da1bcc51f6324U, 0xd6f60dcfbd48222dU, 0xd8b521a421e4f407U,
  0xb4c2fc15c2a914d9U, 0x9eba0f17e2fc00f2U, 0x1520b709cce3adf2U, 0x40a3b6f7349bb4fdU,
  0xeeb514fe35c7c1fbU, 0xc3d60037a906cddcU, 0xd6ea201f19b9d20cU, 0xcff1c5f92decffc9U,
  0xbb3fd3b9e7391adaU, 0xe7121543c7ecd216U, 0x48e0bdcabd14abe5U, 0xab13ceb633b50fb4U,
  0x9bbbd91bdacfc4b9U, 0xaeb9f8c494b2e513U, 0xddd2cf25e64e1ca3U, 0x2efae22ad4f0220dU,
  0x1dbf02b733320922U, 0x13c8d6b2b8fa0428U, 0xf1e3a845c233c0e1U, 0xe7e21b9c1f19e01eU,
  0xcf463dd02cb420ceU, 0x13185531e6914012U, 0x4ed24914c0e1cef5U, 0x9fe04a3f07c60729U,
  0xc6e5239ca318f507U, 0xad73397f53800f0U, 0x98eaddc7a2c026c2U, 0x10e3b6f60d26be03U,
  0x2e87241503eaef12U, 0xe4dafee8dfc6c910U, 0xe73daf23d808ddacU, 0xd3aaddeef114db01U,
  0xf3b1142615edd8c1U, 0x49cda3e0eeb8b2b9U, 0xbcfd9dd0d5141a02U, 0xd842cd06d1262915U,
  0xf998f7dab2c78816U, 0x421673cfc8cc3033U, 0x3991a843e0b0e4b6U, 0xd3d307c2b0eed63fU,
  0x42b7d2baf8214609U, 0xa5dfb2bafafaaaU, 0x11fb0722bfcd0ab9U, 0x2613cbf21f00f22fU,
  0x32fba3c2c018f605U, 0xdb3bc6beec13f8e1U, 0x2781ebe9d3e9dd02U, 0x31e3bcc318c8e3c3U,
  0xd50d32d341a9f4a3U, 0x9aa13990b4dccbf0U, 0xae18f6373ab78fd0U, 0xda1eacf4e71ce0d4U,
  0xb197a5ca1684e411U, 0x96ee49ff230bb1afU, 0xaef9fa03d2b529efU, 0xc126c588cdccc01dU,
  0xd3fab6fad008e31cU, 0xfe03102b2bd8a4c9U, 0xd6dbc403cc09cfe6U, 0xfe38ecabef943003U,
  0xbd03bcf7fe86aff5U, 0x2d46b72a1db759f8U, 0xcb0a07f904002245U, 0xeb82e22d0f5bcf5U,
  0x2e0e25094f2b45d8U, 0xb4f4ddf511b8401cU, 0x16030c0bb398d34eU, 0x3cc9bd12dd0b3e34U,
  0xb8ecbcc5f0f4dee4U, 0xd8c614041eeaafabU, 0xc9cfd242adf48202U, 0x59f410b9e739d5a0U,
  0xed3c31f900ce133dU, 0xacdce31f1d37c315U, 0xf045aaff2a0cebe8U, 0xf9effbbda3910a15U,
  0xdcbeb6adb73485c9U, 0xeebab5a09df31406U, 0xd51703c51044070fU, 0xf24f1bbeef21accU,
  0xd758f5d8f0a8f244U, 0xfcf9cdbd24d946d4U, 0x2c19d6c4483ef0caU, 0xe8ebf9a6ef24b817U,
  0xd5fea9aba1d32fdbU, 0xf2d2f1e832f4f739U, 0xe436f50444cac3e2U, 0xd03b1e41d26dd04U,
  0xf6c019baf5d7231cU, 0xdbf61ce1d7a7282bU, 0xefbdf8deccf9e743U, 0xecd4d3d6f4cccf09U,
  0xb4bb26154e99042aU, 0xd431c62817c5a7f9U, 0x26d504042e20acaaU, 0x35d2aed4afb9c326U,
  0xfac1053bfe0843U, 0xe795dde3f4ecd322U, 0xd26f938aa4302f4U, 0xe905eeb3ffe7a917U,
  0xa3b63b05bc8dfaa7U, 0x17bf28c336ebdb1eU, 0xae2a230ef9fc3a25U, 0x2e202403263211b7U,
  0x20ffb8d041d838b3U, 0xe625c7f201c22ad5U, 0xd7d3a9ef3a0fb00aU, 0xb8cfc211b5b14614U,
  0xd9f41edec893d707U, 0xeee915e4f3f7b9a7U, 0x14b4d2ecbbefc61bU, 0xbdd02b3e6c105a2U,
  0xdc31280ed5b637fdU, 0xcaa2f8c603c00b1fU, 0x9235eee4b221b652U, 0xb9e89d1dc8ecc6c4U,
  0xcce1bc32cfb4e1c9U, 0x15b88fbc158ea3e9U, 0xb82704af07ea2636U, 0xc8431913cf052bd7U,
  0x2fd0f918bdfeb337U, 0xd53e8efa17b7a3dbU, 0xc6cabca3a11fe001U, 0x2301d71139e7f53fU,
  0x33c0a5f3bed0f501U, 0x3b4aa5ada1d3c6d5U, 0xdbc3f1c0d20dcb0eU, 0x1ba628041233e0a6U,
  0xad2e30a9f0fea237U, 0x352925e60f1454e9U, 0x7c92c3de5132efdU, 0x20cd2ce8291cafd4U,
  0xe1eea5d418111ae3U, 0x54bbd1dbbb0e2e0cU, 0xa9cf01bf4421fcf0U, 0xa5480e1227eacad9U,
  0x2022af012ad908a1U, 0xf912e7acd2c92f33U, 0x1628fdbcae36d7b8U, 0xb21dd7dbaf14ac00U,
  0xb1dbaf2bd9e2ea05U, 0xa6a0d31ae4bb4136U, 0xadbbfe6d2d521beU, 0xb5ea22f2efaf17b8U,
  0x15231ef3cea6e5e2U, 0x2df427ef39f2e0f9U, 0x961d1cf30fb4bbcfU, 0xb1d03aab021ba8U,
  0x1c1291c442cdf4aeU, 0x37fe1028b3f204efU, 0x529271530952323U, 0xe51100d2b02d3fa4U,
  0xcbcefc42fbda1f28U, 0xc5caeac0cc3c32e2U, 0xc1e8e5c02d03fe02U, 0xe7c9eb2118a9c0dfU,
  0xaababad3a302f61fU, 0xe8a0a9a842e4f3dbU, 0xbde2239cf2ae97ebU, 0x11cfdaf210e4dacfU,
  0xf7333fb8d53329e6U, 0xb896d0f720d61628U, 0x18bbaf37ccf9e0bbU, 0x20c7ad8bd292a9d5U,
  0x25970ce1251009acU, 0xe329daf3cdcf2fe8U, 0xa0d22727decfb1a3U, 0xc20b130ba10dc626U,
  0x5303fa102a22cb9U, 0x203943cbd5acd81cU, 0x9c1801a40f2ded2eU, 0x2ab7c3c004e7413eU,
  0xe70bb3a5ed32e700U, 0x1d2845e0d5ce1ff0U, 0x29c91b19e2e23639U, 0xe409093fd122a3edU,
  0x1ac20fabf730ef41U, 0xdbd4b0c3280dd92bU, 0x36ae23b628cc1311U, 0x144bf0fa11f3220U,
  0xf243f54022d4fa4bU, 0x46b548fd1316ba2aU, 0x2003d6ea1eb337efU, 0xbb2ff2fff2aac6eaU,
  0x2f28ff2ea8fb3441U, 0xc719ab0acfbc1addU, 0xb6fde5e4c8fcd00eU, 0x50840d8202f1745U,
  0x1bddfb007cd49e0U, 0x11cc21da070dfcfcU, 0xaacabe07bdf4c419U, 0xb8b63ec62234d9e2U,
  0x1d15aa1fb8d0d21dU, 0x15bafcffbbc81011U, 0xb8caac32331dc645U, 0x4009a22ea6260b1bU,
  0x519b5acb0340635U, 0xdcf1d3d0eeec3defU, 0xb531a720f6be03e8U, 0xa3110f30b4d640b2U,
  0x371f9d4418cec49dU, 0xf3bc16ac360152f9U, 0x328fd13b1ba44U, 0xe19abdc2caf9220aU,
  0x343d240bb32a4130U, 0x43ab4e70d8f0eaaU, 0xf5c1312d34efd8b8U, 0xd021060918e3ae31U,
  0x2021c5c7309c25a3U, 0xa6041dd0f8413516U, 0xdb10fd1b2ab9a53eU, 0x4bb9f23ab62ea79cU,
  0x9b39033d1c35f9e9U, 0x2ab4faba391922e3U, 0x3fb0f5cc2bb21dd9U, 0x1040b3450834adc3U,
  0xb83f23a8da3edbbdU, 0xbc21f1e21049d418U, 0xf8e1d13303d7e7f7U, 0xcd382c2044b5daa6U,
  0xb217d59ff9f00ef0U, 0x483505e1cdc2dc91U, 0x3b9df613a639fad3U, 0xceaee9f61da59e2bU,
  0xc5c6fbd240b23ab9U, 0x22e19cb61953b62bU, 0xb5d8310217c0c51fU, 0xd89e9ef8c3c4aa1aU,
  0x290bfb35ecb8b6b7U, 0x20f3950b2d090cc7U, 0x62ce918b030d701U, 0xa2c3027a207360bU,
  0xec1e8e7c4cccabeU, 0x2094a0bc23cbde0bU, 0x2842c8da1adad83cU, 0x15c80e19efbbce00U,
  0x170ca30c16cc0515U, 0x3a96cb3ba5a4b3ecU, 0xfead16aad4e10dc9U, 0xaffbc504d6daeeb6U,
  0x3d299e3a28292634U, 0xea052944c910e991U, 0x48de26f8f936bad2U, 0xef930e1c2216d11aU,
  0xa6c9b9d6bc01e233U, 0x41f61cdefafaeeabU, 0xe721fbd43aec3191U, 0x8c0a8a8b9e429f1U,
  0x2620d134f7a72d31U, 0x2047fa0abd011dbfU, 0x34481fafb025d0c8U, 0xfae3baeed8bf1c02U,
  0x9a28a42f4528e5dfU, 0xf4149d07b7b0bfebU, 0xc8b12d2cc8cefe8dU, 0x3bde10cc8babfd7U,
  0x1ed6fe350712b3eaU, 0xbc42ee02f448c499U, 0xc7dbfddddb1cec10U, 0xf30a30382dcd22baU,
  0x27cbebf0d6a4e723U, 0xd1ce9b280cb6cd14U, 0x2ca30fbdae34238aU, 0x2bed3e45edb2aab3U,
  0x182f1fda25dd3fd5U, 0x5e8b1fd01fac3c2U, 0x93f17ebdf2383feU, 0xfcca33bc290f2b0dU,
  0xfe0d41fee2f2d91aU, 0x40bda0c27342bf8U, 0x25dfe514f2efb6f4U, 0x1ddf7143efb08efU,
  0x27f2dad5aee3eae8U, 0xf508c2e6e3fcf2f2U, 0xc5aaebaefae44425U, 0x46b32611bd0cbad9U,
  0xd6c1f0c812f10aa4U, 0xa1c9fb3eecb4e6ceU, 0xdbccd7bfb3e9f7c1U, 0xd81bfee098d003fcU,
  0x9200b0ce1d3e6edU, 0xe55417312617dfb6U, 0x1a061013c83f41e3U, 0x1d1b1637f232be19U,
  0xb1080ff7251d2530U, 0x2e0606fd0d5f00f1U, 0xdf26e228e94a45beU, 0xe3ef252eb8d52bf6U,
  0xeaec2b28f508f62bU, 0x2c1b181230071ffbU, 0x7231f12191f3ae2U, 0x181c26464332c7eaU,
  0x1a1bf2e6ed2f310aU, 0x37e31632db570405U, 0xe0fe07d2f1226f11U, 0x22154fe6e5d0f7faU,
  0xaec6302f83f310cU, 0x1a40fafc381113fbU, 0x32806230efd311eU, 0x1a451950251b2cf1U,
  0x2df22f27eee6002eU, 0x18e0282f0d4a2017U, 0x110007ebf36152feU, 0xbe23020090b071fU,
  0xef09fcf6080b2dfbU, 0x31f7fc20150f2aeaU, 0xf82dfff5fe00141cU, 0xf7241e3ad8eff4ebU,
  0xf60c07d3f529fad1U, 0x1ada010eee0d0719U, 0xfe8f1f1041616d7U, 0xcc011afae70124f1U,
  0x1dd62f0f12030106U, 0x381bcaf906dbc9c8U, 0x181513c7e122acc0U, 0x15a904eb161fffe0U,
  0xf20f1decedc2fa33U, 0x1dedd935e3f806ccU, 0xf83dee02d20ba2aeU, 0xbcfe120a14e2bdfdU,
  0xf21705dad5c812e3U, 0xecfe360de40f3136U, 0xeff3decbd0e6170dU, 0x3940202ac21dc6f3U,
  0x13fbf1d11e1b04cbU, 0xc1eb2df30bf9c8ddU, 0x3f6c4b1fac932d1U, 0x4df27feb8fa2417U,
  0xf1f6f414f7f9dd15U, 0xa075919f30eea1fU, 0x18c6f8f203014112U, 0x522e2321dd3412f1U,
  0x2310f40de024fb29U, 0xbfa1d36233cdb14U, 0xf814f5e8f824f8fbU, 0x27101addf22132f9U,
  0x11e937fbe8f1f9f1U, 0x2af70b2c00e9b7fcU, 0x2e5050a02e82a23U, 0xe60f1b16f302f408U,
  0xd200162f0ee40deeU, 0xf2df4741041e0830U, 0x183111d91522e5e2U, 0xfed1ff9edf62f24U,
  0x2fc1f34f6030205U, 0x22d6f544fe2deceaU, 0xb0708291502e3dfU, 0xd623043c0f0b0308U,
  0xe11504e61d004d10U, 0x24222a121c20f524U, 0x2b28f3fcf303ec15U, 0x29fa33e81adc25daU,
  0xe8fb2ff82730351aU, 0x8172413f8f8232eU, 0x40093f2bf7002407U, 0x390463441026e650U,
  0x3af0f41f2831191aU, 0xde0c0dfbed22e119U, 0x110701fc0c3d2d20U, 0x2ee92130e82a3be9U,
  0x10e73eff05f1ee06U, 0x3ff1110dd403b1e1U, 0x11342f043235cdfdU, 0x1afbf4fff15641e6U,
  0x1527202636e21cf4U, 0xdbff1f2b330d27eeU, 0xec23135be93fac02U, 0x10eadf28f80eac21U,
  0xfd07f9f8b7e8c101U, 0x20cb25e80b7ee732U, 0xaabdc5e211d4602bU, 0x4909eb07a8f1da09U,
  0xf7d00008290470c8U, 0xc10bf809fee4a8e5U, 0xc6e0ffe80fd02804U, 0x1bd9c5c9ea321106U,
  0xdffb1610dce2e9e2U, 0xfc4e401d1adacb1aU, 0x16f20622e7244f2aU, 0x34091f3e0410e020U,
  0x17fb2cdad4061bffU, 0xefe710f6e71ef104U, 0xc0e0b06f030f1f3U, 0xd6f90427fde627f3U,
  0xed15fcfd170005fdU, 0xf70e473a190be402U, 0x222305040bf7fad5U, 0x1e1b304ae6260425U,
  0xf6eb3422d7e244fbU, 0xe60e1216f535fcf2U, 0xe82dfe19012118ffU, 0xcf713ec11fe0912U,
  0xfe183a1c0527fcdeU, 0xe2e081f0316f828U, 0x2a021f0b16fe11e6U, 0x31f32723f40a0affU,
  0xee08fa070605f6ebU, 0x190e504320240f14U, 0xfdfbe9e7dd1918efU, 0x1df6fbeedde9cb29U,
  0x14e521e81f081121U, 0x240119fe1107db20U, 0xedd6fd2210123df5U, 0xb0a42491702202fU,
  0x33ec22dfe7f630ecU, 0xf12452351331101aU, 0x8011b34f1f70824U, 0xe311ff24e7442d11U,
  0x181c04fa29f416dfU, 0x352b14332afaf42cU, 0x802f1e40632d3f2U, 0xbb1e1200ff392ffcU,
  0x3ea37e62033f440U, 0x2d040ce8fa2923e5U, 0xf014dd35fa29c8f2U, 0x3116220b0311f6edU,
  0xe7e818fbcaf6ebf9U, 0x28b333f8d42f3dfdU, 0xe7c8d2db00cc1a34U, 0x322b2e32ce2dad20U,
  0x11fbfee9f42041c9U, 0xc7f63057f10fd50dU, 0xd9fde1fd1ac851d2U, 0xc0e2cdaeb0a25f4U,
  0xce8e9f9e203fe08U, 0xed2ad42a2d291ad8U, 0x39f91b0ec7403dfeU, 0x14230c26142106f7U,
  0xdcfa1edafef4391cU, 0x1fec15fcdd3fcbf1U, 0xece71c01fd2940ebU, 0xc5f55510e420f9e3U,
  0xe4e9f8190336f2e8U, 0x232dfa11de16e7edU, 0xb0e08fd2ef605ecU, 0x1603052bfe2111e5U,
  0xf4f414d5f9fe0505U, 0xf22a4321ef17f3feU, 0xe05150feaff180fU, 0xf817e80ee00fe7eaU,
  0x718220b09f8f6ccU, 0xae310e114dcea1fU, 0xe4e2efd905eabd24U, 0x233515e5c0321cefU,
  0x4110cf4e505fdfaU, 0xdf331e41361408d9U, 0x701ffb3ef180034U, 0xfd1dfa0aef2ee734U,
  0x1a06fae131f8fecfU, 0x5bfa2812fd40f742U, 0xfd311fe3fa2e1b20U, 0x13484920002d1426U,
  0x12fc190bfa370b17U, 0xfbf24e24f2153f25U, 0x1c08fb21fd461641U, 0xe8ca2a363a1c22U,
  0x10fc25f009f5ec11U, 0x4700f82edae7ed2eU, 0x12362700fb10ac0aU, 0x2b1119f90431ff0dU,
  0x2f0b2c1cfc1c1701U, 0xfd051d070c1042d7U, 0x138f516d320cc07U, 0x3a0bf1e5e8eccffdU,
  0x4ef35fce2f409dfU, 0xb401242c1eeefc56U, 0x1600f905271b0a02U, 0x1d502127ea5ae8f1U,
  0x33dc0805f816dfecU, 0xeff114e11304eb18U, 0xfc35e6f00ec90f0dU, 0x73050aaf04053c3aU,
  0x34e1220400ce08U, 0xda250a2ed547e7f8U, 0xb8b5191b25fa37e5U, 0x710cf04106110d23U,
  0xf6ed0206144d43ebU, 0x481cf72af562d2f2U, 0xcbe901f8d0ce64f3U, 0x2824e7ce31f03be4U,
  0xdd220ce2d6f8ebdaU, 0x700fc28dce9bc15U, 0x3b7f401f80908feU, 0xd0f424051d3f04e4U,
  0xf2d53decc5190505U, 0xeef9383ef531a11bU, 0xee4bd2fadbe7262fU, 0x5f112f8edd7ee1cU,
  0xf1effcc5f3d515abU, 0xb2152bf208da1eU, 0xfcedd2c4f6faafdbU, 0x635d6c1e94d0edaU,
  0xc28c7f40b390bddU, 0xdc0e12fbf5d588cbU, 0xfdeac209b1e4cb10U, 0x50924c9cd1d1718U,
  0xfffd1df30bffd8bfU, 0x15ba361ff1cbe81dU, 0x689e4d735dfceccU, 0xe117f6f3f131f804U,
  0xff07dde9cc43f4b5U, 0xae26080b02f7a400U, 0xf223d70ff5dcdd17U, 0x55c3fdf2f4302008U,
